/*
 * Copyright (c) 2024 EdgeImpulse Inc.
 *
 * Generated by Edge Impulse and licensed under the applicable Edge Impulse
 * Terms of Service. Community and Professional Terms of Service
 * (https://docs.edgeimpulse.com/page/terms-of-service) or Enterprise Terms of
 * Service (https://docs.edgeimpulse.com/page/enterprise-terms-of-service),
 * according to your product plan subscription (the “License”).
 *
 * This software, documentation and other associated files (collectively referred
 * to as the “Software”) is a single SDK variation generated by the Edge Impulse
 * platform and requires an active paid Edge Impulse subscription to use this
 * Software for any purpose.
 *
 * You may NOT use this Software unless you have an active Edge Impulse subscription
 * that meets the eligibility requirements for the applicable License, subject to
 * your full and continued compliance with the terms and conditions of the License,
 * including without limitation any usage restrictions under the applicable License.
 *
 * If you do not have an active Edge Impulse product plan subscription, or if use
 * of this Software exceeds the usage limitations of your Edge Impulse product plan
 * subscription, you are not permitted to use this Software and must immediately
 * delete and erase all copies of this Software within your control or possession.
 * Edge Impulse reserves all rights and remedies available to enforce its rights.
 *
 * Unless required by applicable law or agreed to in writing, the Software is
 * distributed on an "AS IS" BASIS, WITHOUT WARRANTIES OR CONDITIONS OF ANY KIND,
 * either express or implied. See the License for the specific language governing
 * permissions, disclaimers and limitations under the License.
 */

#ifndef _EI_CLASSIFIER_TFLITE_LEARN_4_H_
#define _EI_CLASSIFIER_TFLITE_LEARN_4_H_

#define EI_CLASSIFIER_TFLITE_LEARN_4_ARENA_SIZE     10624
const size_t tflite_learn_4_arena_size = 10624;

#ifdef EI_CLASSIFIER_TFLITE_ARENA_SIZE
#if EI_CLASSIFIER_TFLITE_ARENA_SIZE < EI_CLASSIFIER_TFLITE_LEARN_4_ARENA_SIZE
#undef EI_CLASSIFIER_TFLITE_ARENA_SIZE
#define EI_CLASSIFIER_TFLITE_ARENA_SIZE EI_CLASSIFIER_TFLITE_LEARN_4_ARENA_SIZE
#endif // #if EI_CLASSIFIER_TFLITE_ARENA_SIZE < EI_CLASSIFIER_TFLITE_LEARN_4_ARENA_SIZE
#else
#define EI_CLASSIFIER_TFLITE_ARENA_SIZE EI_CLASSIFIER_TFLITE_LEARN_4_ARENA_SIZE
#endif // #ifdef EI_CLASSIFIER_TFLITE_ARENA_SIZE

#if defined __GNUC__
#define ALIGN(X) __attribute__((aligned(X)))
#elif defined _MSC_VER
#define ALIGN(X) __declspec(align(X))
#elif defined __TASKING__
#define ALIGN(X) __align(X)
#else
#define ALIGN(X)
#endif

ALIGN(16) const unsigned char tflite_learn_4[] = {
  0x1c, 0x00, 0x00, 0x00, 0x54, 0x46, 0x4c, 0x33, 0x14, 0x00, 0x20, 0x00,
  0x1c, 0x00, 0x18, 0x00, 0x14, 0x00, 0x10, 0x00, 0x0c, 0x00, 0x00, 0x00,
  0x08, 0x00, 0x04, 0x00, 0x14, 0x00, 0x00, 0x00, 0x1c, 0x00, 0x00, 0x00,
  0x8c, 0x00, 0x00, 0x00, 0xe4, 0x00, 0x00, 0x00, 0xdc, 0x17, 0x00, 0x00,
  0xec, 0x17, 0x00, 0x00, 0x94, 0x23, 0x00, 0x00, 0x03, 0x00, 0x00, 0x00,
  0x01, 0x00, 0x00, 0x00, 0x10, 0x00, 0x00, 0x00, 0x00, 0x00, 0x0a, 0x00,
  0x10, 0x00, 0x0c, 0x00, 0x08, 0x00, 0x04, 0x00, 0x0a, 0x00, 0x00, 0x00,
  0x0c, 0x00, 0x00, 0x00, 0x1c, 0x00, 0x00, 0x00, 0x3c, 0x00, 0x00, 0x00,
  0x0f, 0x00, 0x00, 0x00, 0x73, 0x65, 0x72, 0x76, 0x69, 0x6e, 0x67, 0x5f,
  0x64, 0x65, 0x66, 0x61, 0x75, 0x6c, 0x74, 0x00, 0x01, 0x00, 0x00, 0x00,
  0x04, 0x00, 0x00, 0x00, 0x9c, 0xff, 0xff, 0xff, 0x16, 0x00, 0x00, 0x00,
  0x04, 0x00, 0x00, 0x00, 0x08, 0x00, 0x00, 0x00, 0x6f, 0x75, 0x74, 0x70,
  0x75, 0x74, 0x5f, 0x30, 0x00, 0x00, 0x00, 0x00, 0x01, 0x00, 0x00, 0x00,
  0x04, 0x00, 0x00, 0x00, 0xfe, 0xe7, 0xff, 0xff, 0x04, 0x00, 0x00, 0x00,
  0x01, 0x00, 0x00, 0x00, 0x78, 0x00, 0x00, 0x00, 0x02, 0x00, 0x00, 0x00,
  0x34, 0x00, 0x00, 0x00, 0x04, 0x00, 0x00, 0x00, 0xdc, 0xff, 0xff, 0xff,
  0x19, 0x00, 0x00, 0x00, 0x04, 0x00, 0x00, 0x00, 0x13, 0x00, 0x00, 0x00,
  0x43, 0x4f, 0x4e, 0x56, 0x45, 0x52, 0x53, 0x49, 0x4f, 0x4e, 0x5f, 0x4d,
  0x45, 0x54, 0x41, 0x44, 0x41, 0x54, 0x41, 0x00, 0x08, 0x00, 0x0c, 0x00,
  0x08, 0x00, 0x04, 0x00, 0x08, 0x00, 0x00, 0x00, 0x18, 0x00, 0x00, 0x00,
  0x04, 0x00, 0x00, 0x00, 0x13, 0x00, 0x00, 0x00, 0x6d, 0x69, 0x6e, 0x5f,
  0x72, 0x75, 0x6e, 0x74, 0x69, 0x6d, 0x65, 0x5f, 0x76, 0x65, 0x72, 0x73,
  0x69, 0x6f, 0x6e, 0x00, 0x1a, 0x00, 0x00, 0x00, 0xf4, 0x16, 0x00, 0x00,
  0xec, 0x16, 0x00, 0x00, 0xbc, 0x16, 0x00, 0x00, 0x6c, 0x16, 0x00, 0x00,
  0x4c, 0x16, 0x00, 0x00, 0x2c, 0x16, 0x00, 0x00, 0x0c, 0x16, 0x00, 0x00,
  0xec, 0x15, 0x00, 0x00, 0xfc, 0x10, 0x00, 0x00, 0xec, 0x0a, 0x00, 0x00,
  0xd0, 0x0a, 0x00, 0x00, 0xb8, 0x0a, 0x00, 0x00, 0xe8, 0x00, 0x00, 0x00,
  0xe0, 0x00, 0x00, 0x00, 0xd8, 0x00, 0x00, 0x00, 0xd0, 0x00, 0x00, 0x00,
  0xc8, 0x00, 0x00, 0x00, 0xc0, 0x00, 0x00, 0x00, 0xb8, 0x00, 0x00, 0x00,
  0xb0, 0x00, 0x00, 0x00, 0xa8, 0x00, 0x00, 0x00, 0xa0, 0x00, 0x00, 0x00,
  0x98, 0x00, 0x00, 0x00, 0x90, 0x00, 0x00, 0x00, 0x70, 0x00, 0x00, 0x00,
  0x04, 0x00, 0x00, 0x00, 0xd6, 0xe8, 0xff, 0xff, 0x04, 0x00, 0x00, 0x00,
  0x5c, 0x00, 0x00, 0x00, 0x0c, 0x00, 0x00, 0x00, 0x08, 0x00, 0x0e, 0x00,
  0x08, 0x00, 0x04, 0x00, 0x08, 0x00, 0x00, 0x00, 0x14, 0x00, 0x00, 0x00,
  0x2c, 0x00, 0x00, 0x00, 0x00, 0x00, 0x0a, 0x00, 0x0c, 0x00, 0x08, 0x00,
  0x00, 0x00, 0x07, 0x00, 0x0a, 0x00, 0x00, 0x00, 0x00, 0x00, 0x00, 0x01,
  0x04, 0x00, 0x00, 0x00, 0x00, 0x00, 0x00, 0x00, 0x00, 0x00, 0x0a, 0x00,
  0x10, 0x00, 0x0c, 0x00, 0x08, 0x00, 0x04, 0x00, 0x0a, 0x00, 0x00, 0x00,
  0x03, 0x00, 0x00, 0x00, 0x02, 0x00, 0x00, 0x00, 0x04, 0x00, 0x00, 0x00,
  0x06, 0x00, 0x00, 0x00, 0x32, 0x2e, 0x31, 0x31, 0x2e, 0x31, 0x00, 0x00,
  0x3e, 0xe9, 0xff, 0xff, 0x04, 0x00, 0x00, 0x00, 0x10, 0x00, 0x00, 0x00,
  0x31, 0x2e, 0x35, 0x2e, 0x30, 0x00, 0x00, 0x00, 0x00, 0x00, 0x00, 0x00,
  0x00, 0x00, 0x00, 0x00, 0x60, 0xde, 0xff, 0xff, 0x64, 0xde, 0xff, 0xff,
  0x68, 0xde, 0xff, 0xff, 0x6c, 0xde, 0xff, 0xff, 0x70, 0xde, 0xff, 0xff,
  0x74, 0xde, 0xff, 0xff, 0x78, 0xde, 0xff, 0xff, 0x7c, 0xde, 0xff, 0xff,
  0x80, 0xde, 0xff, 0xff, 0x84, 0xde, 0xff, 0xff, 0x88, 0xde, 0xff, 0xff,
  0x86, 0xe9, 0xff, 0xff, 0x04, 0x00, 0x00, 0x00, 0xc0, 0x09, 0x00, 0x00,
  0x55, 0x62, 0x57, 0xbe, 0x9a, 0x66, 0xa4, 0x3c, 0x45, 0xb1, 0x24, 0xbe,
  0x80, 0xd9, 0x19, 0xbf, 0xb6, 0x0f, 0x8b, 0xbc, 0xb7, 0xf5, 0x03, 0x3d,
  0x34, 0xb8, 0x7d, 0x3e, 0xe5, 0x55, 0x87, 0xbe, 0x22, 0x99, 0x48, 0xbe,
  0xc1, 0x55, 0xcc, 0x3e, 0x69, 0x57, 0xaa, 0xbd, 0xad, 0x84, 0xe9, 0xbe,
  0xe9, 0xe3, 0x6a, 0xbe, 0xee, 0x71, 0xca, 0xbc, 0xcf, 0xdd, 0xb7, 0xbc,
  0x44, 0xab, 0xcb, 0xbd, 0x25, 0xd6, 0x71, 0x3b, 0x61, 0x31, 0x49, 0xbe,
  0x91, 0xbd, 0x17, 0x3e, 0x98, 0xe6, 0x1a, 0xbd, 0x14, 0x54, 0xc2, 0x3e,
  0x32, 0x35, 0x2a, 0x3c, 0x12, 0xa1, 0xf4, 0xbc, 0x3d, 0x53, 0xd0, 0xbc,
  0x0e, 0xc6, 0x5d, 0xbe, 0x1e, 0xc7, 0x86, 0xbe, 0x23, 0xf1, 0x1d, 0x3d,
  0x07, 0xdd, 0x7d, 0xbe, 0xdd, 0x02, 0x75, 0xbe, 0xba, 0x3f, 0x37, 0xbe,
  0x18, 0xb6, 0xd8, 0x3d, 0x59, 0x7d, 0xdf, 0xbd, 0x4a, 0x68, 0x58, 0x3e,
  0xda, 0xe2, 0x0e, 0xbe, 0x04, 0xb5, 0xb7, 0xbd, 0x56, 0xf8, 0x4c, 0xbe,
  0xd0, 0xf5, 0x2e, 0x3d, 0xde, 0xed, 0x3c, 0xbf, 0x17, 0x26, 0x34, 0x3e,
  0xd2, 0xba, 0x4d, 0x3e, 0xc3, 0x22, 0xee, 0xbd, 0x49, 0x3e, 0x90, 0xbe,
  0x58, 0x24, 0x68, 0xbe, 0xb7, 0x4d, 0x89, 0xbe, 0x24, 0xa3, 0x2f, 0x3e,
  0xca, 0x27, 0x13, 0x3d, 0x0b, 0x0a, 0x49, 0x3e, 0x9e, 0xe8, 0x91, 0x3e,
  0x62, 0x40, 0x5a, 0x3e, 0xe9, 0x1d, 0xa2, 0xbe, 0x4d, 0x48, 0x00, 0xbe,
  0x40, 0xdc, 0xd3, 0xbe, 0xf5, 0x37, 0x4c, 0x3e, 0xe4, 0x4a, 0x2a, 0xbf,
  0xfc, 0xff, 0x21, 0x3e, 0x62, 0x6a, 0x27, 0x3e, 0x0c, 0xdd, 0x19, 0x3d,
  0x84, 0x20, 0x7b, 0xbe, 0xde, 0xb1, 0x97, 0xbd, 0xbd, 0x48, 0xfc, 0xbe,
  0x9f, 0x0b, 0x77, 0x3d, 0x3c, 0xbf, 0x02, 0xbd, 0x2d, 0x8d, 0x70, 0x3e,
  0xed, 0x11, 0x8a, 0xbe, 0x13, 0x59, 0xd9, 0x3e, 0xae, 0x39, 0x2d, 0xbe,
  0x2a, 0x16, 0x8a, 0xbe, 0x8e, 0x30, 0x46, 0xbe, 0x53, 0x89, 0x81, 0x3e,
  0xb9, 0x38, 0xca, 0x3c, 0xcb, 0x0f, 0x86, 0x3e, 0xc0, 0x4e, 0x96, 0xbe,
  0x43, 0xbb, 0x31, 0xbe, 0xe5, 0xbd, 0xad, 0xbd, 0x62, 0xe6, 0x4b, 0xbe,
  0xb9, 0x9f, 0xa9, 0x3d, 0x93, 0x64, 0x4c, 0xbc, 0xf0, 0x30, 0xb4, 0x3d,
  0x27, 0x4a, 0x21, 0x3e, 0xae, 0xa9, 0xd8, 0xbe, 0xd7, 0x81, 0x9f, 0x3d,
  0x66, 0xc5, 0x98, 0xbe, 0x46, 0x8f, 0x9b, 0x3d, 0xc5, 0x09, 0xd6, 0xbe,
  0x8e, 0x34, 0xe0, 0x3d, 0x44, 0xf5, 0x89, 0x3c, 0x68, 0x24, 0xae, 0x3e,
  0xb5, 0xf4, 0x1d, 0x3c, 0xfe, 0x8e, 0x26, 0xbe, 0x44, 0xec, 0x07, 0x3d,
  0xd5, 0x7b, 0x8e, 0xbd, 0x20, 0x74, 0xc1, 0x3c, 0xf5, 0x74, 0x4d, 0xbe,
  0xec, 0xc8, 0x9e, 0x3e, 0xc6, 0xc5, 0x31, 0x3e, 0xde, 0x2b, 0x27, 0x3d,
  0x83, 0x24, 0x64, 0xbd, 0x66, 0x36, 0x25, 0xbe, 0xfe, 0xa9, 0x45, 0xbe,
  0x92, 0x03, 0x23, 0xbe, 0x56, 0xeb, 0x93, 0xbe, 0x2d, 0x73, 0xe7, 0x3c,
  0xce, 0x08, 0x86, 0x3a, 0x26, 0x95, 0xa4, 0xbd, 0xe5, 0x19, 0x72, 0x3e,
  0x10, 0xd4, 0x5a, 0xbe, 0xba, 0x85, 0xf4, 0xbe, 0xc0, 0x28, 0xc8, 0xbe,
  0x19, 0x1d, 0x04, 0xbe, 0xca, 0xdf, 0x61, 0x3e, 0xd5, 0x1c, 0x19, 0x3e,
  0x6c, 0x27, 0xc1, 0xbe, 0x6b, 0x57, 0xf6, 0xbc, 0x7c, 0x8a, 0xed, 0xbc,
  0x26, 0xa2, 0x16, 0x3e, 0xd3, 0xcc, 0x89, 0xbe, 0x64, 0x82, 0x15, 0x3e,
  0x0f, 0xc5, 0xbd, 0x3c, 0xb7, 0x45, 0xca, 0xbe, 0x59, 0xb3, 0x40, 0xbe,
  0xd5, 0x91, 0x77, 0x3d, 0xc7, 0xf3, 0x99, 0xbe, 0x83, 0x19, 0x14, 0xbe,
  0xfb, 0xfd, 0xae, 0xbe, 0x83, 0x85, 0xe6, 0xbe, 0xe1, 0x08, 0x0e, 0xbe,
  0xfa, 0x83, 0xfa, 0x3d, 0xa1, 0x3c, 0x92, 0xbe, 0x0f, 0x5c, 0x24, 0x3e,
  0xd3, 0x6a, 0xb4, 0x3b, 0x9e, 0xba, 0x9b, 0x3d, 0xb8, 0x05, 0x2b, 0xbe,
  0xed, 0x25, 0xb6, 0x3e, 0x02, 0xd2, 0x8a, 0xbe, 0xf7, 0x94, 0xca, 0x3e,
  0xd6, 0x91, 0x14, 0xbd, 0xb4, 0x9d, 0x94, 0xbd, 0x89, 0x3c, 0x89, 0xbe,
  0xf2, 0x65, 0xf7, 0xbd, 0xb9, 0xd4, 0xf3, 0xbe, 0x73, 0xe7, 0x4a, 0xbe,
  0xef, 0x3f, 0x4c, 0x3e, 0x4c, 0xc1, 0x87, 0x3e, 0x96, 0xf7, 0xbd, 0x3d,
  0x30, 0x07, 0x51, 0x3e, 0xf9, 0x12, 0x3a, 0x3c, 0x61, 0x30, 0xc1, 0xbc,
  0xb2, 0xd7, 0x37, 0xbe, 0x38, 0x83, 0x2e, 0x3e, 0x91, 0x10, 0xee, 0xbe,
  0x36, 0xed, 0xa0, 0x3e, 0xf7, 0x55, 0xad, 0x3c, 0x8b, 0x61, 0x8b, 0xbe,
  0x29, 0x3a, 0x6d, 0xbe, 0x0e, 0xae, 0x60, 0x3e, 0x65, 0x5d, 0x4d, 0xbe,
  0xa2, 0xa5, 0x43, 0x3d, 0x28, 0x54, 0xba, 0xbd, 0x81, 0xe4, 0x2c, 0x3d,
  0xb3, 0x61, 0x98, 0xbe, 0x20, 0x4a, 0xd0, 0x3e, 0x19, 0xae, 0x92, 0xbe,
  0x6c, 0x33, 0x59, 0xbe, 0x76, 0xf7, 0x68, 0xbe, 0x59, 0x61, 0x4d, 0x3e,
  0x66, 0xf9, 0xd9, 0xbd, 0x66, 0x7d, 0xb0, 0x3e, 0x0e, 0x52, 0x4d, 0xbd,
  0xcb, 0xda, 0x91, 0xbd, 0x2e, 0xd4, 0xd2, 0x3d, 0x8c, 0x61, 0x89, 0x3e,
  0xc9, 0x32, 0x48, 0xbd, 0x72, 0xe6, 0x1c, 0x3e, 0xed, 0xe7, 0xef, 0x3c,
  0xdd, 0x58, 0x85, 0x3e, 0x96, 0x29, 0x61, 0xbe, 0xef, 0x67, 0x8b, 0x3d,
  0xe3, 0x70, 0x42, 0x3d, 0xc2, 0x78, 0x92, 0x3e, 0x25, 0xf7, 0xee, 0xbd,
  0xdf, 0x67, 0x4c, 0x3e, 0xdc, 0xbf, 0x16, 0x3d, 0xd5, 0x45, 0xa1, 0xbc,
  0xd6, 0x78, 0xba, 0xbd, 0x2c, 0x42, 0x1c, 0xbd, 0x44, 0xe8, 0x9a, 0x3d,
  0xab, 0xe2, 0x23, 0xbf, 0x29, 0xad, 0xee, 0xbe, 0x9a, 0xd6, 0x06, 0xbe,
  0x97, 0x10, 0x18, 0x3e, 0x1a, 0x7f, 0x1b, 0x3e, 0x94, 0x3d, 0xc3, 0xbd,
  0xe8, 0xcf, 0xa2, 0x3e, 0xf7, 0x48, 0x23, 0xbe, 0x3e, 0x2e, 0x39, 0xbe,
  0x37, 0x98, 0x5e, 0x3e, 0xcc, 0x8f, 0xde, 0xbe, 0x00, 0x07, 0xab, 0xbe,
  0xea, 0xd4, 0x3b, 0x3e, 0x52, 0xf2, 0x62, 0x3e, 0x65, 0x64, 0x8b, 0xbe,
  0x50, 0x19, 0x03, 0x3e, 0x0d, 0x99, 0x1f, 0xbf, 0x0a, 0x05, 0x97, 0xbe,
  0x9a, 0xd3, 0x7b, 0xbd, 0xa9, 0xfa, 0x0c, 0x3f, 0x02, 0x4e, 0xb0, 0x3e,
  0x1e, 0x52, 0x4c, 0x3e, 0x3a, 0x4a, 0x1b, 0x3e, 0x5d, 0x3a, 0x2e, 0x3e,
  0x2c, 0x60, 0x64, 0x3e, 0x21, 0xbe, 0x7e, 0x3d, 0xca, 0x98, 0x22, 0xbe,
  0xc2, 0x43, 0x69, 0xbe, 0xd8, 0xc3, 0x5d, 0x3e, 0xb3, 0x76, 0x09, 0xbe,
  0xb7, 0xa2, 0x34, 0x3e, 0x59, 0x01, 0x37, 0x3d, 0x05, 0x0c, 0x4e, 0x3d,
  0x5f, 0xd7, 0x59, 0x3e, 0x22, 0xa2, 0xa8, 0x3d, 0xed, 0x98, 0x12, 0x3d,
  0x71, 0x81, 0x33, 0xbd, 0x2f, 0x5c, 0xc3, 0x3e, 0x88, 0xcc, 0x21, 0xbe,
  0x68, 0x27, 0x95, 0x3c, 0x3c, 0x9e, 0x10, 0xbe, 0x63, 0xda, 0x9a, 0x3e,
  0x5f, 0x0b, 0x0d, 0x3e, 0x45, 0xc4, 0x3d, 0xbd, 0xd8, 0x88, 0xc8, 0x3c,
  0xc8, 0x63, 0x08, 0xbe, 0x7f, 0x4c, 0x67, 0x3e, 0x90, 0x27, 0x49, 0x3d,
  0xfe, 0x99, 0x1b, 0xbd, 0x4a, 0x9a, 0x6f, 0x3e, 0x9e, 0x9e, 0x36, 0xbd,
  0xc4, 0xd8, 0x96, 0xbe, 0x9d, 0x58, 0xd1, 0xbd, 0x23, 0x04, 0xa3, 0x3d,
  0x84, 0xcc, 0x72, 0xbe, 0xbd, 0xc1, 0xf1, 0x3d, 0x56, 0x69, 0x14, 0xbe,
  0xe6, 0x65, 0xd1, 0xbd, 0x66, 0x29, 0x1b, 0xbe, 0x26, 0xe2, 0x65, 0x3d,
  0x84, 0x36, 0x5b, 0xbd, 0xfc, 0x3e, 0xa2, 0xbd, 0x24, 0xd5, 0xb7, 0xbb,
  0x03, 0x04, 0xab, 0x3d, 0x77, 0x89, 0x46, 0xbe, 0x1d, 0x79, 0x31, 0xbc,
  0x1b, 0x30, 0x38, 0xbe, 0x13, 0x62, 0x14, 0xbe, 0xb1, 0x15, 0x44, 0xbe,
  0x40, 0xd0, 0x7d, 0xbd, 0x3f, 0x99, 0xc2, 0xbd, 0x11, 0x3a, 0x37, 0x3e,
  0xaa, 0x84, 0xa3, 0x3c, 0xeb, 0x80, 0x85, 0x3d, 0x01, 0x39, 0x21, 0xbe,
  0x56, 0x4d, 0x48, 0x3d, 0x34, 0x8f, 0x9d, 0xbe, 0x67, 0x1e, 0x7e, 0xbe,
  0x04, 0x50, 0x65, 0x3d, 0x61, 0x31, 0x7b, 0x3e, 0x50, 0x1e, 0x2d, 0xbd,
  0x55, 0x88, 0x1f, 0x3d, 0xe5, 0xfc, 0xe6, 0x3d, 0x4b, 0x31, 0x41, 0x3e,
  0x3a, 0xbf, 0xa0, 0xbd, 0x5e, 0xd7, 0x63, 0x3e, 0xc3, 0xd3, 0x7e, 0xbe,
  0x2d, 0x14, 0x86, 0x3e, 0x04, 0x6d, 0xa0, 0xbd, 0xa6, 0x20, 0x93, 0x3e,
  0xf1, 0x71, 0xc3, 0x3e, 0x89, 0xe0, 0xfb, 0xbd, 0xe3, 0x2c, 0x06, 0x3e,
  0xd7, 0xe4, 0x0f, 0xbe, 0x19, 0x50, 0xe4, 0x3d, 0xf7, 0xac, 0xa1, 0x3e,
  0xf2, 0x97, 0xa5, 0x3e, 0x7b, 0xb3, 0x4c, 0x3e, 0x4e, 0x4d, 0xdd, 0xbb,
  0x3e, 0x2e, 0x14, 0xbe, 0x45, 0x7e, 0xa1, 0xbe, 0xf6, 0xba, 0xf8, 0xbd,
  0x6b, 0x96, 0x87, 0xbe, 0x7b, 0x86, 0x37, 0x3e, 0xad, 0xd2, 0xd3, 0xbd,
  0xd4, 0x73, 0xe5, 0x3d, 0x85, 0x9f, 0x81, 0xbd, 0x9d, 0xce, 0x03, 0xbe,
  0xbf, 0x82, 0x0c, 0xbe, 0x60, 0x83, 0x8a, 0xbd, 0x71, 0x2a, 0xf4, 0x3e,
  0xfc, 0xf8, 0x8b, 0x3e, 0x49, 0x9a, 0xe6, 0xbd, 0xfe, 0x53, 0xb1, 0xbd,
  0x0f, 0x90, 0xca, 0xbc, 0x82, 0x5e, 0x40, 0x3e, 0x6f, 0xe4, 0x35, 0xbe,
  0x9c, 0xc8, 0x1c, 0x3d, 0x8f, 0x50, 0xb5, 0xbd, 0xca, 0xa0, 0x72, 0x3e,
  0x63, 0x0b, 0x1d, 0x3e, 0xcc, 0x4b, 0x8d, 0x3e, 0x51, 0xdf, 0x71, 0x3e,
  0x3d, 0x07, 0x25, 0xbe, 0xfb, 0xaf, 0x19, 0xbd, 0x24, 0xef, 0x0f, 0xbd,
  0x61, 0xe0, 0xc3, 0x3b, 0x4d, 0x87, 0x54, 0x3e, 0x54, 0xd1, 0x4d, 0xbd,
  0x2a, 0x60, 0x66, 0x3d, 0xe0, 0x81, 0xe4, 0x3d, 0x50, 0x42, 0xa6, 0xbe,
  0xd6, 0x2b, 0xc7, 0xbe, 0x36, 0x1e, 0xee, 0x3e, 0xe8, 0x46, 0xc8, 0xbc,
  0x69, 0x53, 0x09, 0xbe, 0x5d, 0x03, 0x76, 0x3d, 0x41, 0x75, 0x8b, 0x3e,
  0x58, 0x75, 0xf4, 0x3d, 0x59, 0x9a, 0xd5, 0xbd, 0x40, 0x0f, 0x7b, 0x3e,
  0x08, 0x2f, 0x50, 0x3e, 0x31, 0x70, 0x71, 0x3e, 0xc8, 0x7d, 0x38, 0x3d,
  0x9c, 0x66, 0x67, 0xbe, 0xf8, 0x08, 0x6d, 0x3d, 0x79, 0x66, 0x16, 0x3e,
  0x46, 0x56, 0xdf, 0x3d, 0xb4, 0x49, 0xa7, 0xbd, 0x30, 0xe4, 0x67, 0x3d,
  0xd8, 0x8b, 0x72, 0xbe, 0xbc, 0xce, 0x28, 0x3e, 0x1e, 0x96, 0x1f, 0xbe,
  0xbf, 0x18, 0x25, 0x3d, 0x52, 0xc1, 0x6b, 0xbe, 0x47, 0x9d, 0x9c, 0xbc,
  0xb8, 0xc1, 0x5d, 0xbe, 0xd4, 0x98, 0x66, 0xbe, 0x1c, 0x16, 0x19, 0xbd,
  0xe7, 0x2b, 0x35, 0xbd, 0x6e, 0xdd, 0x3a, 0xbf, 0xf6, 0x02, 0xe3, 0x3d,
  0x40, 0x03, 0x57, 0x3d, 0x37, 0x7c, 0xc0, 0xbe, 0x35, 0x7e, 0xb0, 0x3d,
  0xe3, 0x45, 0xd6, 0xbd, 0x1d, 0xc5, 0x92, 0x3c, 0x65, 0x7f, 0x06, 0x3e,
  0xfb, 0x63, 0x4a, 0x3d, 0xc4, 0xde, 0x4b, 0x3e, 0x4a, 0x79, 0x34, 0xbb,
  0x2e, 0xe7, 0x8a, 0x3d, 0x82, 0xbc, 0xfb, 0x3d, 0x56, 0xe8, 0x77, 0xbe,
  0x82, 0xbb, 0x91, 0xbd, 0x9c, 0x35, 0x2a, 0x3e, 0x15, 0xd3, 0x18, 0xbe,
  0xc5, 0xc6, 0x35, 0xbd, 0x5c, 0xf1, 0xc4, 0xbe, 0x06, 0xb4, 0x09, 0x3e,
  0xce, 0xa9, 0xe8, 0x3b, 0xe2, 0x72, 0xd8, 0x3e, 0xf4, 0x35, 0x1b, 0xbe,
  0x12, 0xc6, 0xf9, 0x3e, 0x3b, 0x3b, 0x73, 0x3d, 0x1a, 0x44, 0x49, 0x3e,
  0xf9, 0x4f, 0x41, 0x3e, 0x58, 0x7c, 0xcb, 0xbd, 0x08, 0x3e, 0x2a, 0xbd,
  0x2a, 0x4c, 0xfa, 0xbd, 0x5d, 0x82, 0x97, 0x3d, 0x4a, 0xc6, 0x74, 0x3d,
  0x5f, 0x55, 0xcc, 0xbe, 0xaf, 0x56, 0x0f, 0x3e, 0xf7, 0xf6, 0x8e, 0x3e,
  0x4f, 0x25, 0xf6, 0xbd, 0x9e, 0xfc, 0xa2, 0x3d, 0xf9, 0x4e, 0x66, 0x3e,
  0x02, 0x72, 0x66, 0x3d, 0xe7, 0xb8, 0x50, 0xbe, 0x0a, 0x75, 0x21, 0xbe,
  0x28, 0xa3, 0xfb, 0x3e, 0x79, 0x4a, 0x56, 0xbb, 0x8c, 0xa9, 0x16, 0xbe,
  0x1d, 0x81, 0x19, 0x3e, 0x9b, 0xf8, 0x2d, 0xbc, 0xd8, 0xd0, 0x34, 0x3e,
  0x21, 0x82, 0xbb, 0x3d, 0x52, 0xd2, 0x8b, 0x3c, 0xc7, 0x87, 0x58, 0x3e,
  0xb5, 0xfb, 0x00, 0x3c, 0x72, 0x5e, 0x03, 0x3e, 0x81, 0x96, 0x1b, 0x3d,
  0x54, 0x42, 0xa2, 0x3e, 0x00, 0xfe, 0xdb, 0xbd, 0xd0, 0x31, 0x56, 0x3e,
  0x7c, 0xa6, 0x79, 0x3d, 0x4c, 0xa2, 0x8f, 0x3e, 0xd5, 0x76, 0xb3, 0x3e,
  0x59, 0x87, 0x04, 0x3c, 0x9b, 0x8b, 0xb5, 0x3c, 0x9b, 0xeb, 0x3f, 0xbe,
  0x20, 0xa7, 0xcf, 0x3e, 0x42, 0xb9, 0x0c, 0xbd, 0x35, 0xb4, 0x02, 0xbe,
  0x23, 0xd9, 0x88, 0x3e, 0x08, 0xcf, 0xfe, 0xbd, 0x4b, 0xe3, 0x83, 0xbe,
  0x56, 0xde, 0x95, 0xbe, 0x5b, 0xb6, 0x90, 0xbd, 0xf3, 0x15, 0x05, 0x3d,
  0x31, 0xfc, 0x9a, 0xbd, 0x76, 0x02, 0x0f, 0x3e, 0x5e, 0x17, 0x65, 0x3d,
  0x2d, 0xd2, 0x2a, 0xbe, 0xbf, 0x64, 0xe3, 0x3d, 0x15, 0x9e, 0xd0, 0xbe,
  0x35, 0x52, 0x80, 0x3c, 0xca, 0xa4, 0x0f, 0x3d, 0xd8, 0x77, 0x5f, 0xbe,
  0x20, 0x4f, 0x83, 0x3e, 0x5d, 0x2b, 0xc4, 0xbc, 0x47, 0x09, 0x68, 0x3d,
  0xfc, 0x71, 0xfa, 0x3d, 0xa9, 0x12, 0xaa, 0x3d, 0xbb, 0x9b, 0xee, 0xbd,
  0x91, 0x19, 0x3b, 0x3e, 0x48, 0x1f, 0xd6, 0x3d, 0xba, 0x37, 0x92, 0xbc,
  0xbc, 0x63, 0x2b, 0x3b, 0x24, 0xd4, 0xcc, 0xbe, 0x06, 0xe9, 0x5e, 0x3e,
  0x0e, 0x5c, 0x6b, 0x3e, 0x47, 0xfa, 0x05, 0xbd, 0xfc, 0x05, 0x8a, 0xbe,
  0x12, 0x27, 0x5c, 0x3e, 0xd2, 0x4b, 0x99, 0x3e, 0x56, 0x43, 0x72, 0x3d,
  0xec, 0x11, 0x2a, 0x3e, 0xb8, 0x1c, 0x6e, 0x3e, 0x77, 0x2f, 0x1e, 0x3e,
  0x74, 0x3d, 0x01, 0xbe, 0xf5, 0xb1, 0x81, 0x3d, 0xea, 0x39, 0x95, 0x3d,
  0x42, 0x6d, 0x14, 0x3e, 0x11, 0xaa, 0x24, 0x3e, 0xa0, 0x4c, 0x95, 0x3e,
  0x12, 0x81, 0x28, 0x3e, 0x50, 0x75, 0x4e, 0xbe, 0xc4, 0x31, 0x18, 0x3e,
  0x2f, 0x0a, 0x65, 0x3d, 0x6d, 0xf4, 0x25, 0xbe, 0x07, 0xc7, 0x5e, 0x3e,
  0x43, 0x6a, 0x50, 0x3e, 0x8f, 0x60, 0x0c, 0x3e, 0x35, 0x61, 0x47, 0xbc,
  0x10, 0xaa, 0xc7, 0xbc, 0x14, 0xcf, 0x40, 0xbe, 0x7c, 0x50, 0x37, 0xbd,
  0xa2, 0x47, 0xba, 0xbd, 0xbb, 0x48, 0x97, 0xbd, 0x10, 0x77, 0x9e, 0xb8,
  0x1e, 0xa3, 0x93, 0x3d, 0x2a, 0x97, 0x0b, 0x3e, 0xca, 0x6e, 0x35, 0xbd,
  0xb6, 0x6e, 0x15, 0x3e, 0x86, 0x89, 0x15, 0xbd, 0xd5, 0xc7, 0x10, 0xbd,
  0xab, 0xd1, 0x19, 0x3e, 0xdd, 0x8d, 0xbe, 0x3d, 0xb0, 0xae, 0x99, 0xbd,
  0xb8, 0x2f, 0x25, 0xbe, 0x30, 0x95, 0xb9, 0xbe, 0x17, 0x99, 0xb7, 0xbd,
  0xea, 0xe5, 0xc6, 0x3d, 0x5b, 0x47, 0x00, 0x3e, 0xff, 0xeb, 0x8d, 0x3e,
  0xdd, 0xc3, 0x2b, 0xbd, 0xcf, 0xb6, 0x1d, 0xbf, 0xee, 0x5a, 0xa1, 0x3d,
  0xe6, 0x5f, 0x91, 0xbe, 0x69, 0xd4, 0xb8, 0x3e, 0x8c, 0x4d, 0x66, 0xbe,
  0xb1, 0xb0, 0x84, 0xbe, 0x78, 0x0c, 0xef, 0xbe, 0x45, 0x14, 0x11, 0xbd,
  0xb4, 0x76, 0xa2, 0x3d, 0xe9, 0x01, 0x9c, 0x3e, 0xb8, 0x7a, 0x05, 0xbd,
  0xa7, 0xfe, 0xee, 0x3d, 0x02, 0xe0, 0x2f, 0xbd, 0xb1, 0x54, 0x99, 0xbd,
  0x4a, 0x97, 0x86, 0x3e, 0xed, 0xfb, 0xf1, 0xbd, 0x3b, 0xc8, 0x37, 0x3d,
  0x65, 0x3f, 0xc6, 0x3c, 0xe4, 0x14, 0x68, 0xbe, 0xf4, 0xbb, 0xfe, 0x3d,
  0x7c, 0x03, 0x8a, 0xbe, 0x92, 0x9b, 0xa4, 0xbc, 0x17, 0x45, 0x99, 0xbd,
  0x7d, 0x76, 0xe9, 0x3d, 0x45, 0xea, 0x1c, 0x3e, 0x35, 0xc0, 0x13, 0xbe,
  0x3d, 0xbd, 0x0f, 0xbd, 0x9a, 0xba, 0x57, 0xbd, 0xc4, 0xc0, 0xd1, 0xbd,
  0x09, 0x2b, 0x75, 0xbe, 0x40, 0x44, 0xdf, 0x3d, 0xc4, 0x84, 0x08, 0x3e,
  0xab, 0xe3, 0x81, 0xbe, 0x12, 0x4d, 0xa5, 0x3e, 0x65, 0x00, 0xc8, 0xbd,
  0x24, 0x61, 0xd4, 0x3d, 0xe2, 0xdd, 0xc0, 0x3c, 0xb0, 0xba, 0x8e, 0xbe,
  0xee, 0x8f, 0x55, 0x3d, 0xb9, 0xef, 0xd9, 0x3d, 0x1e, 0x51, 0xfd, 0xbd,
  0x18, 0xf0, 0x93, 0x3d, 0xf3, 0x54, 0x2c, 0x3e, 0x15, 0xbf, 0x92, 0x3c,
  0xfa, 0xa8, 0x2b, 0xbe, 0xc2, 0xac, 0x66, 0x3d, 0x30, 0x1c, 0xbf, 0x3d,
  0xc6, 0xf2, 0x80, 0xbe, 0xf8, 0x66, 0x54, 0xbe, 0x35, 0x08, 0x9a, 0x3e,
  0xaa, 0x69, 0x59, 0x3e, 0xa7, 0x71, 0xd4, 0x3d, 0x7b, 0x81, 0xea, 0xbd,
  0x9f, 0x0b, 0x66, 0x3d, 0xcb, 0xc7, 0x6d, 0x3e, 0xdd, 0x82, 0x26, 0xbe,
  0x5b, 0xc6, 0x66, 0xbc, 0xe2, 0x9c, 0x2e, 0xbd, 0x30, 0xa2, 0xf5, 0xbd,
  0xdc, 0xd0, 0x82, 0xbe, 0x72, 0x6e, 0xf3, 0x3d, 0x2d, 0xc1, 0xa9, 0xbd,
  0x64, 0x71, 0x37, 0xbd, 0x61, 0x3e, 0x69, 0x3d, 0x06, 0xc4, 0x90, 0x3d,
  0xbe, 0x03, 0x80, 0x3c, 0x2c, 0x7f, 0x6e, 0xbc, 0x18, 0x44, 0xed, 0x3c,
  0x38, 0xdc, 0x83, 0xbc, 0x12, 0x30, 0x1f, 0x3c, 0x25, 0x90, 0xef, 0x3e,
  0xef, 0xa3, 0x96, 0x3e, 0x16, 0x9d, 0xc8, 0x3e, 0x4a, 0xee, 0xee, 0x3d,
  0x8a, 0xb7, 0x71, 0xbe, 0xed, 0xcc, 0x26, 0xbd, 0x49, 0x09, 0xc6, 0xbe,
  0xb7, 0xf7, 0x01, 0xbe, 0x29, 0xb4, 0x3f, 0x3e, 0x83, 0x89, 0x4b, 0x3e,
  0x8d, 0x55, 0x96, 0xbd, 0x45, 0x43, 0x39, 0x3e, 0x29, 0xac, 0xae, 0xbd,
  0xdb, 0xc7, 0xc2, 0xbd, 0x0e, 0x16, 0xa0, 0x3d, 0xec, 0x8f, 0x8c, 0x3d,
  0x30, 0xba, 0x50, 0x3d, 0x78, 0xda, 0xe0, 0x3d, 0x82, 0xd5, 0x25, 0x3e,
  0xdb, 0x9a, 0x3c, 0xbe, 0x7d, 0x5f, 0x52, 0xbd, 0x4d, 0x00, 0x59, 0xbe,
  0x0e, 0xf2, 0xdb, 0x3c, 0x82, 0x6f, 0x52, 0xbe, 0x48, 0x77, 0x7f, 0x3c,
  0x92, 0x22, 0x27, 0x3e, 0x22, 0x13, 0xb0, 0xbe, 0xf3, 0x45, 0x62, 0x3e,
  0x79, 0xa5, 0x48, 0xbd, 0x39, 0xb3, 0xc4, 0x3c, 0x96, 0xb4, 0x8c, 0xbd,
  0x9b, 0x4b, 0x54, 0xbe, 0x83, 0xfa, 0xe7, 0x3c, 0xf3, 0x0e, 0x65, 0x3d,
  0xba, 0xa3, 0x96, 0xbe, 0xe2, 0x02, 0x0a, 0xbe, 0xff, 0xdf, 0x8a, 0xbe,
  0x0b, 0x38, 0x4f, 0xbd, 0xb4, 0x64, 0xc9, 0xbb, 0x47, 0xb2, 0x9c, 0xbd,
  0x1d, 0xeb, 0x23, 0x3e, 0x63, 0xd6, 0x5f, 0xbe, 0x08, 0xed, 0x6b, 0xbe,
  0x06, 0x31, 0xe7, 0x3d, 0x9e, 0x40, 0x13, 0x3d, 0xcf, 0x8b, 0x1f, 0x3e,
  0xfa, 0x56, 0x2c, 0xbe, 0xcb, 0x86, 0xbc, 0xbd, 0xfa, 0x6b, 0x9c, 0x3e,
  0x3e, 0xdf, 0x48, 0x3c, 0x70, 0x67, 0xa9, 0x3c, 0xaa, 0x95, 0x32, 0xbe,
  0x4d, 0x80, 0x36, 0xbd, 0x95, 0x5b, 0xb5, 0xbd, 0x44, 0xec, 0x28, 0x3c,
  0x08, 0x16, 0x45, 0xbd, 0x32, 0xcb, 0x5b, 0x3d, 0x31, 0x52, 0xd4, 0xbe,
  0xa4, 0xb0, 0x91, 0x3e, 0x8c, 0x02, 0x67, 0x3e, 0x32, 0x96, 0x49, 0xbd,
  0x45, 0x59, 0xbe, 0x3e, 0x88, 0xe8, 0x57, 0xbe, 0x44, 0x19, 0x00, 0x3d,
  0xff, 0x43, 0xef, 0x3e, 0x06, 0x3b, 0x48, 0x3c, 0x79, 0xb6, 0x66, 0x3e,
  0xf6, 0x79, 0xcb, 0xbe, 0xbb, 0xb1, 0x04, 0x3c, 0xba, 0x1f, 0x09, 0xbe,
  0x52, 0xf3, 0xff, 0xff, 0x04, 0x00, 0x00, 0x00, 0x08, 0x00, 0x00, 0x00,
  0xff, 0xff, 0xff, 0xff, 0xd0, 0x00, 0x00, 0x00, 0x66, 0xf3, 0xff, 0xff,
  0x04, 0x00, 0x00, 0x00, 0x0c, 0x00, 0x00, 0x00, 0x7b, 0x9b, 0xe4, 0xbd,
  0x54, 0x98, 0x8d, 0xbd, 0x2d, 0x12, 0x09, 0x3e, 0x7e, 0xf3, 0xff, 0xff,
  0x04, 0x00, 0x00, 0x00, 0x00, 0x06, 0x00, 0x00, 0x21, 0x50, 0x09, 0x3f,
  0x6d, 0x56, 0xba, 0x3d, 0xea, 0xc2, 0x86, 0x3e, 0xde, 0x8c, 0x20, 0x3e,
  0xd0, 0x7d, 0x1c, 0xbd, 0xc9, 0x6e, 0xdc, 0x3d, 0x34, 0x45, 0xff, 0x3d,
  0x44, 0x25, 0x81, 0xbe, 0xfc, 0x05, 0x80, 0xbe, 0xb9, 0xe5, 0x4c, 0xbe,
  0xe6, 0xd4, 0x97, 0xbd, 0xd4, 0xfb, 0x11, 0x3d, 0x5b, 0x4d, 0x90, 0xbd,
  0xe9, 0x76, 0x30, 0x3e, 0x7b, 0x43, 0x95, 0x3e, 0xd3, 0xd0, 0x6b, 0xbe,
  0x5d, 0x11, 0x43, 0x3e, 0x7b, 0x1c, 0x8f, 0x3d, 0x2f, 0xf6, 0x40, 0x3e,
  0xd4, 0xa4, 0x03, 0xbd, 0xe4, 0x10, 0x1f, 0xbe, 0x22, 0x81, 0xc4, 0xbe,
  0x40, 0x3a, 0x72, 0x3e, 0x52, 0xe1, 0x45, 0xbe, 0xd8, 0x57, 0x9b, 0xbe,
  0x67, 0xe7, 0x87, 0xbb, 0xdb, 0x33, 0xc1, 0xbd, 0xc4, 0x72, 0x16, 0x3e,
  0x50, 0xf1, 0xab, 0xbe, 0xbc, 0x48, 0x6d, 0x3c, 0x9e, 0xde, 0xff, 0xbd,
  0x98, 0xbf, 0x2b, 0x3e, 0xff, 0x79, 0xd9, 0xbe, 0x05, 0x97, 0x79, 0xbe,
  0xfd, 0x4f, 0x98, 0xbe, 0x07, 0x77, 0xf8, 0x3c, 0x7e, 0x4c, 0xdb, 0x3d,
  0x33, 0x17, 0x7f, 0x3d, 0x94, 0x77, 0x0a, 0xbd, 0xc6, 0xa7, 0x05, 0x3f,
  0x3f, 0xdd, 0xc8, 0x3d, 0x9c, 0x8c, 0x8b, 0xbe, 0x96, 0xb7, 0xa0, 0xbd,
  0x96, 0x8a, 0x71, 0xbe, 0x17, 0x77, 0x05, 0xbf, 0x36, 0x07, 0xbc, 0xbe,
  0x70, 0x1c, 0xeb, 0xb9, 0x58, 0x1d, 0xf6, 0xbc, 0x98, 0x85, 0xa1, 0xbe,
  0x38, 0x37, 0x5f, 0x3e, 0x40, 0x42, 0x6a, 0xbe, 0x04, 0xd3, 0xb1, 0xbd,
  0x1f, 0xe5, 0xd3, 0xbd, 0x64, 0x60, 0x07, 0xbf, 0x76, 0xff, 0x4a, 0xbe,
  0x03, 0xe1, 0x99, 0x3d, 0xfb, 0x1b, 0xda, 0x3d, 0xa6, 0x17, 0x5e, 0x3e,
  0x5a, 0x33, 0x7b, 0x3d, 0x94, 0xfd, 0x5e, 0x3d, 0x28, 0x0b, 0xc3, 0x3d,
  0xa4, 0xd3, 0xd3, 0xbe, 0xa9, 0x62, 0x69, 0xbc, 0xb0, 0xb8, 0xb3, 0x3b,
  0xd8, 0xeb, 0x06, 0xbe, 0x62, 0x7e, 0x8d, 0x3d, 0xfa, 0x08, 0x70, 0xbd,
  0x16, 0x89, 0x9c, 0xbe, 0xec, 0x80, 0x8d, 0x3c, 0x58, 0xbf, 0xb2, 0xbc,
  0x40, 0xef, 0x01, 0x3f, 0x49, 0x94, 0xb0, 0xbd, 0xbf, 0xf6, 0x9a, 0xbd,
  0xf1, 0x8a, 0x8d, 0xbe, 0xc3, 0x43, 0x17, 0xbe, 0x7b, 0xda, 0x94, 0xbd,
  0x49, 0x3e, 0x1c, 0x3f, 0x41, 0xcc, 0x40, 0xbe, 0x0d, 0xf1, 0xee, 0xbd,
  0xe1, 0x69, 0xb6, 0x3e, 0xe5, 0xa4, 0x75, 0xbe, 0xa7, 0xa6, 0x5e, 0xbe,
  0x3a, 0x74, 0x50, 0xbe, 0xa7, 0x85, 0x6f, 0x3e, 0x7b, 0x6d, 0x9c, 0xbe,
  0x33, 0xcc, 0xe5, 0xbe, 0x5e, 0x49, 0x0b, 0xbe, 0x35, 0x9d, 0x13, 0x3d,
  0xd5, 0x87, 0x52, 0xbe, 0xdd, 0xa8, 0xa8, 0xbd, 0x9a, 0x09, 0x0d, 0xbe,
  0x59, 0xc6, 0x50, 0xbd, 0x26, 0x5c, 0x5a, 0xbc, 0x56, 0xe2, 0xb4, 0xbc,
  0xb0, 0x6d, 0x31, 0xbd, 0x96, 0x8e, 0x92, 0x3e, 0xac, 0x81, 0xb4, 0xbe,
  0x6f, 0x9b, 0x34, 0xbe, 0xa0, 0x02, 0x1d, 0xbf, 0x26, 0x54, 0x22, 0xbe,
  0xd3, 0x56, 0x94, 0xbe, 0xdc, 0x24, 0x7c, 0xbe, 0xa5, 0xd9, 0xb1, 0x3c,
  0x4e, 0x5f, 0xa8, 0x3e, 0x6d, 0xc6, 0x73, 0xbe, 0x4c, 0x96, 0x19, 0xbe,
  0x21, 0xee, 0xd2, 0xbd, 0x31, 0x4a, 0x5a, 0x3e, 0xee, 0xf2, 0x90, 0xbd,
  0x1a, 0xe2, 0xf7, 0xbd, 0xf2, 0x53, 0x85, 0x3d, 0x89, 0xa0, 0x87, 0xbe,
  0x1d, 0xd5, 0x7e, 0x3e, 0x2a, 0xb4, 0x7f, 0x3d, 0x81, 0x58, 0x09, 0x3f,
  0x39, 0xb9, 0x1c, 0xbe, 0x76, 0xfa, 0xbb, 0xbd, 0x89, 0x40, 0xe8, 0x3e,
  0x21, 0x4a, 0x09, 0xbe, 0x2d, 0x05, 0x58, 0x3d, 0xd2, 0x90, 0x2c, 0xbe,
  0x97, 0x94, 0xb8, 0x3e, 0x18, 0xd4, 0xc1, 0xbd, 0x34, 0xa5, 0xce, 0x3d,
  0x24, 0x1f, 0xa0, 0xbd, 0x8d, 0x63, 0x02, 0xbf, 0x61, 0xc9, 0x2b, 0xbf,
  0xe8, 0xc7, 0x45, 0xbe, 0x5d, 0x82, 0xdf, 0xbd, 0x7d, 0x6f, 0xdd, 0x3d,
  0xc8, 0x78, 0xd3, 0xbe, 0x81, 0xbd, 0xdc, 0xbd, 0x40, 0x8c, 0x16, 0x3e,
  0xbb, 0x27, 0x6f, 0xbd, 0x3f, 0x20, 0x35, 0xbf, 0x7b, 0xfe, 0x3d, 0xbd,
  0xba, 0xda, 0x59, 0xbe, 0xee, 0xc3, 0xc3, 0x3e, 0x73, 0x5c, 0xa0, 0xbd,
  0x0e, 0xca, 0x25, 0xbc, 0xe3, 0x84, 0xa6, 0xbd, 0x69, 0xcd, 0x12, 0xbe,
  0x41, 0x60, 0x46, 0xbf, 0x6e, 0x70, 0x78, 0x3e, 0x38, 0x28, 0x28, 0x3b,
  0x5b, 0x29, 0x0a, 0xbe, 0xc8, 0xd9, 0x99, 0x3c, 0xdd, 0x0c, 0x70, 0x3e,
  0xc3, 0xca, 0x55, 0xbd, 0xd6, 0xf0, 0x46, 0x3c, 0xa3, 0x18, 0xeb, 0x3d,
  0xa3, 0x2d, 0x10, 0xbb, 0x1f, 0xbf, 0xaf, 0x3e, 0xdb, 0x15, 0xee, 0xbd,
  0x9b, 0x08, 0x9e, 0x3e, 0x9b, 0xa8, 0x37, 0xbf, 0xd4, 0x8d, 0x38, 0xbe,
  0x6d, 0x01, 0x63, 0x3d, 0x46, 0x7f, 0x01, 0x3e, 0x30, 0xef, 0xb7, 0x3e,
  0x6f, 0x6e, 0x84, 0xbd, 0x42, 0x7c, 0x59, 0xbe, 0x6c, 0x1b, 0xc1, 0xbd,
  0x61, 0xb5, 0x00, 0x3f, 0xe9, 0x85, 0xf6, 0x3d, 0x1e, 0x94, 0xfc, 0x3d,
  0x9b, 0x45, 0x06, 0xbe, 0x86, 0x7a, 0x17, 0xbe, 0x22, 0x89, 0xae, 0xbe,
  0xda, 0x66, 0x2b, 0x3e, 0x18, 0x48, 0x09, 0xbf, 0x70, 0x61, 0x1f, 0xbf,
  0x42, 0xcd, 0x48, 0xbe, 0xd4, 0x77, 0x51, 0x3e, 0xf5, 0x17, 0xec, 0x3e,
  0x2d, 0x8a, 0x25, 0xbc, 0x4d, 0xb7, 0xb8, 0xbd, 0x64, 0x25, 0x00, 0x3f,
  0xa3, 0xb0, 0x3c, 0xbe, 0xf4, 0x73, 0x94, 0x3c, 0x24, 0x8e, 0x55, 0x3c,
  0x54, 0x7f, 0x8f, 0xbd, 0x27, 0x2c, 0x66, 0x3e, 0x7c, 0x64, 0x70, 0xbe,
  0x98, 0xe9, 0x59, 0xbe, 0x59, 0x27, 0xbb, 0x3d, 0x8c, 0x97, 0xf9, 0xbe,
  0xbe, 0x04, 0xe7, 0xbe, 0xc1, 0x64, 0x3f, 0xbc, 0xf0, 0xe9, 0x50, 0x3b,
  0x5d, 0x00, 0x9f, 0x3e, 0x89, 0xf9, 0x3e, 0xbe, 0x28, 0x71, 0x9a, 0x3d,
  0x41, 0xc6, 0xcc, 0xbe, 0xc9, 0xdd, 0xeb, 0x3d, 0x37, 0x84, 0x08, 0xbe,
  0x82, 0xde, 0xa6, 0x3e, 0x0d, 0x7b, 0x8b, 0xbe, 0x8f, 0xd3, 0x9e, 0x3d,
  0x87, 0xb3, 0x34, 0x3d, 0xaa, 0xdb, 0xb7, 0xbe, 0xf4, 0x81, 0x4b, 0xbe,
  0x50, 0x33, 0xad, 0xbd, 0x8b, 0xef, 0x57, 0x3e, 0x43, 0xc8, 0x09, 0xbe,
  0xd3, 0x59, 0xdb, 0xbe, 0x49, 0x28, 0xe8, 0xbe, 0x36, 0xbd, 0xb2, 0x3e,
  0xf7, 0xaf, 0x01, 0xbf, 0x6a, 0x33, 0x53, 0x3d, 0x90, 0xd8, 0x89, 0xbe,
  0x97, 0x52, 0x48, 0x3e, 0xc4, 0x44, 0xd3, 0xbe, 0xc6, 0xb9, 0x93, 0x3c,
  0xe1, 0x65, 0xde, 0xbe, 0xc1, 0xf9, 0x71, 0xbd, 0x56, 0x7f, 0x7a, 0xbe,
  0x24, 0x57, 0x07, 0xbe, 0x50, 0x62, 0x4a, 0xbe, 0xaa, 0xec, 0x79, 0x3e,
  0x40, 0xf9, 0x14, 0xbf, 0x22, 0xf0, 0x81, 0xbd, 0x69, 0x77, 0xec, 0xbd,
  0x18, 0xb8, 0xac, 0x3e, 0x3f, 0x9e, 0x43, 0xbe, 0xec, 0xe7, 0x27, 0xbe,
  0xc4, 0xe4, 0x1d, 0xbd, 0x69, 0x20, 0xdd, 0xbe, 0x2d, 0x1f, 0x15, 0xbe,
  0x26, 0xb1, 0x1b, 0x3e, 0x4f, 0x46, 0x1f, 0x3d, 0x39, 0x66, 0x8c, 0xbc,
  0x0e, 0xfd, 0xcd, 0xbc, 0x8f, 0x19, 0xc7, 0xbe, 0xa4, 0xc9, 0x8b, 0xbe,
  0xf8, 0x93, 0x9a, 0x3e, 0x75, 0xd4, 0x37, 0xbd, 0x85, 0x47, 0xbb, 0x3c,
  0x09, 0xb7, 0xe5, 0xbd, 0x8d, 0x2b, 0x8f, 0x3e, 0xcf, 0x95, 0x06, 0xbf,
  0x30, 0x61, 0x22, 0xbf, 0x9e, 0x28, 0xbd, 0xbe, 0x36, 0x26, 0x19, 0x3e,
  0x1e, 0x57, 0x1c, 0xbd, 0xec, 0x19, 0x24, 0xbe, 0xf4, 0x53, 0xc6, 0x3e,
  0x26, 0xd4, 0x69, 0xbe, 0xa5, 0xb4, 0x26, 0xbe, 0xde, 0x5f, 0x40, 0xbf,
  0xf6, 0x76, 0xab, 0xbe, 0x5d, 0x1d, 0xb6, 0x3e, 0xc3, 0xe2, 0x8f, 0xbc,
  0x93, 0xcb, 0xb5, 0xbd, 0x1d, 0x49, 0x67, 0x3e, 0xd4, 0xcf, 0x73, 0xbe,
  0x9e, 0x4e, 0x40, 0xbe, 0x02, 0x52, 0xbb, 0xbe, 0x15, 0x5d, 0x91, 0xbe,
  0x3b, 0x13, 0xa5, 0x3e, 0xc9, 0x42, 0x15, 0xbe, 0xa9, 0x79, 0xb1, 0x3e,
  0x36, 0xc5, 0xff, 0x3d, 0x5d, 0x5d, 0x1f, 0x3e, 0xdc, 0x87, 0xbc, 0xbe,
  0x32, 0x6c, 0x63, 0xbe, 0xd2, 0x55, 0xf4, 0xbe, 0xb5, 0xe9, 0xcb, 0x3e,
  0xdb, 0x6f, 0x82, 0x3e, 0x06, 0x68, 0x05, 0xbe, 0x58, 0x49, 0x8e, 0x3d,
  0x6a, 0x95, 0x27, 0xbd, 0xc6, 0x4a, 0xd8, 0xbe, 0x63, 0x59, 0x13, 0xbe,
  0xa2, 0xe4, 0xe6, 0xbe, 0x47, 0xd4, 0x92, 0x3d, 0xde, 0xcc, 0xfa, 0x3e,
  0x42, 0x8a, 0x42, 0xbe, 0xd0, 0x7e, 0x61, 0x3e, 0x19, 0x2b, 0x95, 0x3e,
  0x1c, 0x21, 0x1a, 0xbe, 0xa3, 0x30, 0xa9, 0xbd, 0x32, 0x4d, 0x52, 0xbe,
  0xd7, 0xcd, 0x44, 0xbd, 0x5e, 0xa8, 0x21, 0xbe, 0x01, 0x7b, 0xcd, 0xbe,
  0x69, 0x63, 0x5d, 0xbe, 0xd8, 0x82, 0x84, 0x3d, 0xd4, 0xa7, 0xe3, 0xbe,
  0xca, 0xa4, 0x9d, 0xbe, 0x75, 0x71, 0x29, 0xbf, 0xe0, 0xb2, 0x75, 0x3e,
  0x3d, 0x7a, 0x10, 0xbd, 0xc9, 0x82, 0x9d, 0x3d, 0xd8, 0xea, 0xc6, 0x3e,
  0x29, 0xc0, 0x8b, 0xbe, 0x03, 0x25, 0x2b, 0x3d, 0x22, 0x3a, 0xa0, 0xbd,
  0xa8, 0x73, 0xd3, 0xbe, 0x6e, 0x7f, 0x48, 0x3d, 0x31, 0x0e, 0x95, 0xbe,
  0xb4, 0xf4, 0x8a, 0xbe, 0x6c, 0x59, 0xa8, 0xbe, 0x4f, 0xa2, 0xd3, 0xbc,
  0x4f, 0xb4, 0x4c, 0x3d, 0xd7, 0xd7, 0x69, 0xbc, 0x66, 0xe2, 0x86, 0x3e,
  0xfa, 0xc9, 0x52, 0x3e, 0xc2, 0x4e, 0x87, 0x3e, 0xc4, 0xb6, 0x1f, 0xbe,
  0xeb, 0xf4, 0x0a, 0xbe, 0x11, 0x9c, 0x32, 0x3c, 0xd9, 0xf6, 0xec, 0x3e,
  0x44, 0xc0, 0xf2, 0xbd, 0x6f, 0xa0, 0x89, 0xbd, 0x67, 0x99, 0xf6, 0xbd,
  0xb3, 0x2a, 0xb4, 0xbe, 0xc9, 0x6a, 0x23, 0x3f, 0x3d, 0x55, 0x58, 0xbe,
  0x02, 0x53, 0x86, 0xbe, 0x92, 0x23, 0x8b, 0xbd, 0x4a, 0xb1, 0xe2, 0x3c,
  0xc9, 0xfc, 0xdd, 0x3c, 0x7f, 0x8b, 0x37, 0xbe, 0xe5, 0x4b, 0x1c, 0xbe,
  0xbc, 0x33, 0x54, 0xbe, 0xe6, 0x05, 0x70, 0xbd, 0x57, 0xfd, 0x4f, 0xbd,
  0xfb, 0x91, 0x16, 0x3d, 0xcf, 0xe5, 0x52, 0x3e, 0x48, 0x18, 0x39, 0x3e,
  0x95, 0x94, 0x28, 0xbe, 0x20, 0xda, 0x05, 0x3e, 0x85, 0x75, 0xf3, 0xbe,
  0x4d, 0x0d, 0x2f, 0xbe, 0x31, 0x8d, 0x59, 0x3d, 0x24, 0xbd, 0x6d, 0x3e,
  0x7c, 0x47, 0x4e, 0x3d, 0x17, 0x34, 0x53, 0x3e, 0xa4, 0x92, 0x30, 0xbe,
  0x6a, 0x35, 0x6b, 0xbd, 0x32, 0x83, 0x27, 0x3e, 0x57, 0xf6, 0xa7, 0x3d,
  0x1e, 0xee, 0x75, 0xbd, 0x7d, 0x56, 0xdb, 0xbd, 0x6b, 0x1a, 0x9d, 0x3e,
  0x86, 0x1c, 0x12, 0x3f, 0x42, 0x97, 0x5c, 0x3a, 0x6a, 0x56, 0x7d, 0xbd,
  0x3a, 0x58, 0x74, 0xbc, 0x4f, 0xb4, 0xb5, 0x3d, 0xeb, 0xfc, 0x68, 0xbe,
  0x03, 0x2d, 0x00, 0x3f, 0x9d, 0x1b, 0xd3, 0xbd, 0x54, 0x17, 0x59, 0x3e,
  0x4a, 0x7e, 0x8e, 0xbd, 0xd2, 0xc2, 0x10, 0xbd, 0x0f, 0xac, 0x9c, 0xbe,
  0xd3, 0xac, 0x67, 0x3d, 0xff, 0xc8, 0x7a, 0xbe, 0x65, 0x32, 0xc1, 0x3e,
  0x60, 0x74, 0xa0, 0xbd, 0xa0, 0x24, 0xdf, 0xbc, 0x9d, 0xe4, 0x9a, 0xbe,
  0x45, 0x3e, 0xfd, 0x3d, 0xf7, 0x50, 0x10, 0x3e, 0xbc, 0x2d, 0x25, 0xbe,
  0x1b, 0xed, 0xd7, 0x3d, 0xae, 0xe0, 0xc0, 0xbd, 0xfb, 0x33, 0x2b, 0xbe,
  0x46, 0x9f, 0xda, 0xbc, 0x9c, 0x91, 0xb7, 0xbe, 0x1f, 0x4a, 0xa7, 0x3e,
  0x98, 0x15, 0xc1, 0xbe, 0xc6, 0x8b, 0x5d, 0x3e, 0xae, 0xd8, 0xf1, 0x3d,
  0xcd, 0x87, 0xc0, 0xbe, 0x80, 0xbd, 0xee, 0xbd, 0x39, 0x3d, 0x76, 0xbe,
  0xd9, 0x3e, 0xfa, 0xbe, 0x3c, 0xb5, 0x47, 0xbf, 0x77, 0xab, 0x50, 0x3c,
  0xaf, 0xec, 0x49, 0x39, 0x4f, 0xd4, 0x92, 0x3e, 0x8a, 0xf9, 0xff, 0xff,
  0x04, 0x00, 0x00, 0x00, 0xe0, 0x04, 0x00, 0x00, 0x3d, 0xb7, 0xa2, 0x3e,
  0xca, 0xc3, 0xe4, 0x3e, 0x54, 0xfe, 0xeb, 0x3d, 0x17, 0x9a, 0x96, 0x3c,
  0x8a, 0x8a, 0xb4, 0xbe, 0xd9, 0xf2, 0x05, 0x3e, 0xc1, 0x63, 0xc1, 0x3e,
  0xcd, 0xdf, 0xb4, 0x3d, 0x9f, 0x9c, 0xb7, 0xbe, 0x9c, 0xef, 0xa3, 0xbd,
  0xec, 0xd8, 0xe7, 0xbd, 0xd7, 0xdd, 0x6a, 0xbe, 0x46, 0xfe, 0x41, 0x3e,
  0x0b, 0xf9, 0x1c, 0xbf, 0x34, 0xc5, 0x3e, 0xbe, 0xbf, 0xc0, 0x07, 0x3e,
  0xd8, 0x29, 0xe5, 0x3d, 0x4d, 0x6d, 0xa8, 0xbd, 0x8c, 0xaf, 0x39, 0xbd,
  0x11, 0x22, 0x8f, 0xbe, 0xd5, 0xb3, 0xc4, 0x3d, 0xd3, 0x89, 0x2b, 0x3e,
  0x1e, 0x93, 0x80, 0xbd, 0x68, 0x37, 0x86, 0x3e, 0xd5, 0xb2, 0x91, 0x3d,
  0x5f, 0x85, 0xa6, 0xbb, 0x04, 0x44, 0x98, 0xbe, 0xab, 0xa2, 0x49, 0xbe,
  0x5f, 0xbf, 0x24, 0xbe, 0xff, 0x80, 0x6a, 0xbe, 0xa6, 0xef, 0xb7, 0xbe,
  0x24, 0xd8, 0x8e, 0x3d, 0x5b, 0xbc, 0x09, 0x3d, 0x40, 0xbd, 0x79, 0xbe,
  0xad, 0xa2, 0x82, 0xbd, 0x30, 0x3d, 0xcb, 0x3e, 0x3c, 0x79, 0x9a, 0x3d,
  0x40, 0xd9, 0x8b, 0xbd, 0xda, 0x91, 0x4c, 0x3e, 0x22, 0xde, 0xba, 0xbe,
  0x70, 0x88, 0x93, 0xbe, 0x40, 0xbe, 0xc2, 0x3c, 0x7f, 0xb8, 0xab, 0x3e,
  0xc4, 0x57, 0x34, 0x3d, 0x62, 0x05, 0xc8, 0x3e, 0x86, 0x4e, 0x8a, 0xbe,
  0x01, 0xc4, 0x96, 0x3d, 0x64, 0xcb, 0x2b, 0xbd, 0x4e, 0xa3, 0x59, 0x3e,
  0xde, 0x6e, 0xb7, 0xbb, 0x60, 0x67, 0x25, 0xbf, 0x88, 0xc3, 0x4b, 0xbd,
  0xa3, 0xb1, 0x75, 0xbe, 0xa1, 0x5a, 0x08, 0x3e, 0x80, 0x81, 0xab, 0x3d,
  0x47, 0x5d, 0x8e, 0xbe, 0x60, 0xf0, 0xc0, 0xbd, 0xc9, 0xdb, 0x29, 0x3e,
  0x13, 0xc2, 0xef, 0xbd, 0x3f, 0x0a, 0xd2, 0x3c, 0xdf, 0xb7, 0x37, 0xbe,
  0x5e, 0xfb, 0x82, 0x3e, 0x2f, 0x50, 0xd6, 0xbd, 0x39, 0xee, 0x9c, 0x3d,
  0x1d, 0xa3, 0x84, 0x3e, 0x39, 0x9e, 0xae, 0xbe, 0xdf, 0xc0, 0x18, 0xbe,
  0x43, 0xbd, 0xcd, 0x3d, 0xa8, 0x7f, 0x85, 0xbd, 0x15, 0xa5, 0xc2, 0x3d,
  0x21, 0x1c, 0x39, 0x3d, 0x91, 0x44, 0x38, 0xbe, 0x80, 0x5c, 0x54, 0x3e,
  0xef, 0x2e, 0x8a, 0x3e, 0x55, 0x14, 0x33, 0x3e, 0x3e, 0xfe, 0x65, 0x3d,
  0x35, 0x19, 0x2e, 0xbf, 0xbb, 0x93, 0x8e, 0x3d, 0xb9, 0x77, 0x37, 0x3f,
  0x2e, 0x93, 0xc8, 0x3e, 0xbb, 0xf4, 0x76, 0xbe, 0x6d, 0x65, 0xcf, 0x3c,
  0xb4, 0x7b, 0x31, 0xbe, 0x78, 0x42, 0xf1, 0x3d, 0xfc, 0xfb, 0x0f, 0x3e,
  0xa5, 0x44, 0x28, 0xbe, 0x75, 0x30, 0x86, 0xbe, 0x25, 0x99, 0xc3, 0x3d,
  0xb7, 0xa2, 0x13, 0xbc, 0x25, 0xbd, 0x0c, 0xbe, 0x97, 0x7e, 0xa3, 0x3d,
  0xce, 0xe9, 0x46, 0xbf, 0xd5, 0xf7, 0xd5, 0x3d, 0x89, 0x93, 0x9a, 0x3e,
  0x43, 0x60, 0x88, 0x3d, 0xbd, 0x48, 0xa1, 0xbd, 0xfa, 0x56, 0xf7, 0x3c,
  0xfb, 0xd6, 0xdb, 0xbc, 0x05, 0x4f, 0x86, 0x3e, 0x81, 0x20, 0x48, 0xbd,
  0x8a, 0xd2, 0x8e, 0xbd, 0xe4, 0x6f, 0x55, 0x3d, 0x34, 0xe8, 0x90, 0xba,
  0x4a, 0x2c, 0x8e, 0xbd, 0x35, 0x6b, 0x04, 0xbf, 0xfd, 0x68, 0xdf, 0xbe,
  0x7b, 0xb3, 0x83, 0x3c, 0x8f, 0x74, 0x8a, 0xbd, 0xfa, 0xfc, 0x11, 0xbe,
  0x26, 0x79, 0xe9, 0x3c, 0xef, 0x04, 0x63, 0xbe, 0x3c, 0x6e, 0x70, 0x3d,
  0xc8, 0x73, 0x9f, 0x3e, 0xe0, 0xa1, 0x50, 0x3d, 0x58, 0x6d, 0xc3, 0x3c,
  0x6b, 0xfc, 0x5c, 0xbd, 0x45, 0x2e, 0x5f, 0x3c, 0xc0, 0x08, 0xa9, 0xbe,
  0x32, 0xad, 0x75, 0x3e, 0x22, 0x9c, 0x4a, 0x3d, 0xb6, 0x9c, 0x64, 0xbe,
  0xf0, 0x7a, 0xbd, 0x3e, 0xc5, 0xed, 0xe9, 0xbe, 0xa1, 0x67, 0x3f, 0x3e,
  0xb0, 0x08, 0x81, 0xbe, 0x49, 0x86, 0xa0, 0x3e, 0x98, 0x16, 0xba, 0xbe,
  0x84, 0xdb, 0x63, 0xbe, 0x00, 0xa8, 0x81, 0xbd, 0x61, 0x34, 0x86, 0xbd,
  0x94, 0xea, 0x63, 0x3c, 0x4d, 0xfc, 0xc9, 0x3d, 0x05, 0x1c, 0x7a, 0xbe,
  0x1f, 0x8f, 0x22, 0x3f, 0x1b, 0xc7, 0x48, 0xbe, 0x39, 0x8e, 0x07, 0x3e,
  0x06, 0xf9, 0x56, 0xbe, 0x50, 0xfd, 0x27, 0x3e, 0xd0, 0xaa, 0xac, 0x3a,
  0x80, 0x1e, 0xee, 0x3d, 0x00, 0xa6, 0x9a, 0x3e, 0x7e, 0xa0, 0x99, 0xbd,
  0xfa, 0x50, 0x1f, 0x3e, 0xed, 0x7f, 0xe7, 0x3d, 0x1b, 0x22, 0x51, 0x3d,
  0x06, 0x17, 0xcc, 0x3e, 0xae, 0x01, 0x80, 0xbd, 0x86, 0xaa, 0x8f, 0xbd,
  0xff, 0x23, 0x3d, 0x3e, 0x7f, 0x04, 0x32, 0x3e, 0xd9, 0x30, 0x91, 0x3e,
  0xe5, 0x62, 0x5f, 0xbe, 0x91, 0x26, 0xa0, 0x3e, 0xa1, 0x88, 0x7c, 0xbd,
  0x63, 0xe4, 0x24, 0xbe, 0x88, 0xaf, 0xbe, 0xbe, 0x99, 0xa8, 0x95, 0x3d,
  0xf4, 0x6f, 0xfe, 0xbc, 0x9b, 0xa5, 0x75, 0x3d, 0x10, 0x40, 0x12, 0x3d,
  0x66, 0x7f, 0xa0, 0xbe, 0xf3, 0x0f, 0x02, 0x3d, 0x40, 0x30, 0xb8, 0xbe,
  0x69, 0x7b, 0x7c, 0x3e, 0x05, 0x08, 0xec, 0xbd, 0x03, 0x1e, 0x91, 0xbd,
  0x7c, 0x5e, 0xd9, 0xbe, 0xa9, 0xf2, 0x4f, 0x3d, 0x8b, 0xc1, 0x9c, 0x3d,
  0xf1, 0xcd, 0xa5, 0x3e, 0xde, 0x8a, 0x93, 0x3d, 0x47, 0xe6, 0x26, 0x3f,
  0x3c, 0xbe, 0xb1, 0xbe, 0xd7, 0x4c, 0x56, 0xbe, 0xeb, 0xe6, 0xa1, 0xbe,
  0x38, 0x8a, 0xb0, 0xbe, 0x94, 0xca, 0x9a, 0xbd, 0xaf, 0x00, 0x87, 0xbc,
  0x8e, 0xec, 0x67, 0x3d, 0x60, 0x5e, 0x5f, 0x3e, 0x69, 0xa1, 0x68, 0xbe,
  0xfe, 0xd0, 0x7f, 0xbe, 0x30, 0xac, 0xde, 0x3c, 0xc8, 0xb8, 0x03, 0x3e,
  0x2b, 0xae, 0x4e, 0x3e, 0xb4, 0xc8, 0x8b, 0x3c, 0x58, 0xe6, 0x9a, 0xbe,
  0x4f, 0x55, 0x87, 0x3e, 0xa2, 0x56, 0xed, 0xbd, 0x72, 0x97, 0xaa, 0xbe,
  0x3f, 0xd0, 0x25, 0x3e, 0xf1, 0x3b, 0x80, 0x3e, 0x66, 0xee, 0x31, 0xbe,
  0x4a, 0x13, 0x76, 0x3e, 0xcf, 0xbb, 0x25, 0xbd, 0xe5, 0x23, 0xa2, 0xbe,
  0x36, 0x73, 0x26, 0x3e, 0x2c, 0x33, 0xc6, 0x3d, 0xeb, 0xa3, 0x91, 0x3e,
  0x17, 0x6c, 0x44, 0xbe, 0x75, 0xb6, 0xc3, 0x3c, 0xeb, 0x0b, 0x72, 0xbe,
  0xc4, 0x0e, 0x35, 0x3e, 0x51, 0x91, 0x62, 0xbd, 0xf8, 0xd3, 0x33, 0x3e,
  0x6c, 0x3d, 0x3d, 0xbe, 0xff, 0x79, 0x1b, 0x3f, 0x16, 0x82, 0x30, 0x3e,
  0x5e, 0x4a, 0x9f, 0x3e, 0x56, 0xc8, 0x0b, 0xbd, 0x2e, 0x57, 0x99, 0xbe,
  0x59, 0x71, 0x89, 0xbe, 0x39, 0x30, 0x07, 0x3e, 0x5c, 0xb4, 0x19, 0xbe,
  0x42, 0x3a, 0x38, 0x3e, 0x29, 0xe7, 0x17, 0xbd, 0xf8, 0x2e, 0x8b, 0xbe,
  0x5e, 0x4a, 0x81, 0x3e, 0x83, 0x74, 0xab, 0xbe, 0xd9, 0x68, 0xe0, 0x3d,
  0x84, 0x17, 0xe2, 0x3d, 0xef, 0x78, 0x31, 0x3e, 0x54, 0xe0, 0x2c, 0x3e,
  0xb1, 0x6f, 0x69, 0xbe, 0xc9, 0x7a, 0x5c, 0x3e, 0xf4, 0x14, 0xd2, 0xbd,
  0x13, 0x00, 0x96, 0x3e, 0xe0, 0x2f, 0xbd, 0x3d, 0x4c, 0x34, 0x2b, 0xbe,
  0xc3, 0x08, 0x63, 0x3e, 0xec, 0x9a, 0xa8, 0xbe, 0x40, 0x44, 0xa1, 0xbe,
  0x34, 0xee, 0x4d, 0xbe, 0xdd, 0x4b, 0xce, 0x3e, 0x09, 0x71, 0x17, 0x3f,
  0x36, 0x97, 0x8d, 0x3e, 0x99, 0x2d, 0xe9, 0xbd, 0xc4, 0x88, 0x3d, 0x3e,
  0x7f, 0xf8, 0xf7, 0xbd, 0x37, 0x2e, 0xf3, 0xbe, 0x10, 0xee, 0x35, 0xbb,
  0xc0, 0x29, 0x1c, 0x3c, 0xe5, 0x47, 0xe5, 0xbd, 0xd1, 0xa4, 0x8d, 0xbe,
  0x1d, 0xbf, 0x2c, 0x3b, 0x69, 0x0d, 0xa2, 0x3e, 0xca, 0xe0, 0x04, 0x3d,
  0x2f, 0xa6, 0x8e, 0xbe, 0xe0, 0x24, 0x37, 0xbe, 0xdb, 0x09, 0x68, 0x3d,
  0x12, 0x9e, 0x1a, 0xbe, 0xcc, 0x1d, 0xc6, 0x3e, 0xf8, 0x30, 0x24, 0xbe,
  0x5b, 0xb8, 0xcb, 0xbd, 0x37, 0x5d, 0x32, 0x3e, 0x2d, 0x1b, 0x54, 0xbd,
  0x13, 0xef, 0xea, 0xbc, 0x68, 0x59, 0x8f, 0x3e, 0xde, 0x01, 0x2d, 0x3e,
  0xa4, 0xe9, 0x23, 0x3d, 0x5b, 0xe0, 0xe2, 0x3d, 0x41, 0xa8, 0x8a, 0x3e,
  0x74, 0xa7, 0x4e, 0xbc, 0x17, 0x28, 0x88, 0xbd, 0x8f, 0xdc, 0x9a, 0xbd,
  0x08, 0xdd, 0x0e, 0xbf, 0x45, 0x4c, 0x9e, 0x3e, 0x16, 0x2d, 0x06, 0xbc,
  0x9a, 0xed, 0x98, 0xbe, 0xa3, 0x7a, 0xfd, 0xbd, 0x2e, 0xb6, 0xcd, 0xbd,
  0x1f, 0xec, 0x01, 0x3f, 0x13, 0xb5, 0x12, 0x3e, 0xbe, 0x64, 0x12, 0xbd,
  0x5e, 0xd6, 0x3c, 0xbe, 0x5f, 0x06, 0x93, 0x3e, 0xe9, 0xfc, 0x32, 0xbe,
  0x5c, 0x37, 0xa0, 0x3e, 0x01, 0x6a, 0x39, 0xbd, 0xda, 0x99, 0x29, 0xbd,
  0x1b, 0xfa, 0x28, 0x3e, 0x01, 0x66, 0x02, 0xbe, 0x55, 0x9c, 0xd7, 0xbe,
  0x97, 0x39, 0x30, 0x3d, 0xda, 0xff, 0x41, 0x3e, 0x48, 0x99, 0xb2, 0xbd,
  0xcf, 0xa4, 0xa4, 0xbe, 0x01, 0x9a, 0xe7, 0xbd, 0xba, 0x6a, 0xd1, 0x3d,
  0xcb, 0xfe, 0x39, 0x3d, 0x10, 0xcf, 0x5e, 0x3e, 0x91, 0x9a, 0x73, 0xbd,
  0xd7, 0xcb, 0x92, 0x3e, 0x79, 0xb5, 0x20, 0x3e, 0x1d, 0xc4, 0x4b, 0x3c,
  0x32, 0x86, 0xbd, 0xbe, 0xbf, 0x8b, 0xd7, 0xbd, 0x2f, 0xd5, 0xe4, 0x3e,
  0x61, 0xe5, 0x75, 0x3d, 0xed, 0x8b, 0xa2, 0xbe, 0xb0, 0x32, 0x3a, 0x3e,
  0xac, 0xe3, 0x98, 0xbe, 0x27, 0x40, 0xf7, 0x3d, 0x5f, 0x84, 0x0f, 0x3e,
  0x9e, 0x99, 0x8f, 0xbd, 0x26, 0x82, 0x1c, 0x3f, 0xdb, 0x01, 0xa7, 0x3d,
  0x08, 0x6b, 0x07, 0xbe, 0xdd, 0x78, 0xfc, 0xbe, 0xda, 0x59, 0xa8, 0xbb,
  0xb9, 0x21, 0x42, 0x3e, 0x02, 0x58, 0x32, 0x3d, 0x76, 0xfe, 0xff, 0xff,
  0x04, 0x00, 0x00, 0x00, 0x10, 0x00, 0x00, 0x00, 0x01, 0x00, 0x00, 0x00,
  0x19, 0x00, 0x00, 0x00, 0x01, 0x00, 0x00, 0x00, 0x10, 0x00, 0x00, 0x00,
  0x92, 0xfe, 0xff, 0xff, 0x04, 0x00, 0x00, 0x00, 0x10, 0x00, 0x00, 0x00,
  0x01, 0x00, 0x00, 0x00, 0x01, 0x00, 0x00, 0x00, 0x19, 0x00, 0x00, 0x00,
  0x08, 0x00, 0x00, 0x00, 0xae, 0xfe, 0xff, 0xff, 0x04, 0x00, 0x00, 0x00,
  0x10, 0x00, 0x00, 0x00, 0x01, 0x00, 0x00, 0x00, 0x32, 0x00, 0x00, 0x00,
  0x01, 0x00, 0x00, 0x00, 0x08, 0x00, 0x00, 0x00, 0xca, 0xfe, 0xff, 0xff,
  0x04, 0x00, 0x00, 0x00, 0x10, 0x00, 0x00, 0x00, 0x01, 0x00, 0x00, 0x00,
  0x01, 0x00, 0x00, 0x00, 0x32, 0x00, 0x00, 0x00, 0x0d, 0x00, 0x00, 0x00,
  0xe6, 0xfe, 0xff, 0xff, 0x04, 0x00, 0x00, 0x00, 0x40, 0x00, 0x00, 0x00,
  0x8e, 0xfc, 0x09, 0xbe, 0xf8, 0xba, 0x42, 0xbb, 0x6d, 0x4b, 0x67, 0x3d,
  0xd5, 0x2a, 0x92, 0xbd, 0xe3, 0xda, 0x44, 0xbe, 0x8b, 0xc2, 0x81, 0x3e,
  0x3e, 0x6a, 0x9d, 0xbe, 0xc9, 0x7a, 0xaf, 0xbd, 0x86, 0x7a, 0xd7, 0xbd,
  0x75, 0x11, 0xef, 0xbd, 0x0c, 0xc7, 0x0d, 0xbe, 0xa0, 0xf8, 0x8e, 0x3d,
  0xae, 0xe8, 0x00, 0xbd, 0xba, 0x2e, 0x83, 0xbe, 0x73, 0x7f, 0x6b, 0xbe,
  0x6c, 0xfc, 0xe6, 0x3d, 0x32, 0xff, 0xff, 0xff, 0x04, 0x00, 0x00, 0x00,
  0x20, 0x00, 0x00, 0x00, 0xb2, 0xa0, 0x25, 0xbf, 0x79, 0xd7, 0xc8, 0xbe,
  0x04, 0x26, 0x2a, 0xbf, 0x5c, 0x47, 0x17, 0xbf, 0x6f, 0xb8, 0x36, 0xbf,
  0xf2, 0x43, 0x0e, 0xbf, 0x42, 0xa2, 0x14, 0xbf, 0x3e, 0x28, 0xbf, 0xbe,
  0x64, 0xf4, 0xff, 0xff, 0x68, 0xf4, 0xff, 0xff, 0x0f, 0x00, 0x00, 0x00,
  0x4d, 0x4c, 0x49, 0x52, 0x20, 0x43, 0x6f, 0x6e, 0x76, 0x65, 0x72, 0x74,
  0x65, 0x64, 0x2e, 0x00, 0x01, 0x00, 0x00, 0x00, 0x14, 0x00, 0x00, 0x00,
  0x00, 0x00, 0x0e, 0x00, 0x18, 0x00, 0x14, 0x00, 0x10, 0x00, 0x0c, 0x00,
  0x08, 0x00, 0x04, 0x00, 0x0e, 0x00, 0x00, 0x00, 0x14, 0x00, 0x00, 0x00,
  0x1c, 0x00, 0x00, 0x00, 0x84, 0x02, 0x00, 0x00, 0x88, 0x02, 0x00, 0x00,
  0x8c, 0x02, 0x00, 0x00, 0x04, 0x00, 0x00, 0x00, 0x6d, 0x61, 0x69, 0x6e,
  0x00, 0x00, 0x00, 0x00, 0x0b, 0x00, 0x00, 0x00, 0x48, 0x02, 0x00, 0x00,
  0xec, 0x01, 0x00, 0x00, 0xb8, 0x01, 0x00, 0x00, 0x68, 0x01, 0x00, 0x00,
  0x44, 0x01, 0x00, 0x00, 0x00, 0x01, 0x00, 0x00, 0xdc, 0x00, 0x00, 0x00,
  0x9c, 0x00, 0x00, 0x00, 0x78, 0x00, 0x00, 0x00, 0x40, 0x00, 0x00, 0x00,
  0x04, 0x00, 0x00, 0x00, 0x4a, 0xfe, 0xff, 0xff, 0x1c, 0x00, 0x00, 0x00,
  0x00, 0x00, 0x00, 0x09, 0x1c, 0x00, 0x00, 0x00, 0x20, 0x00, 0x00, 0x00,
  0x04, 0x00, 0x00, 0x00, 0x00, 0x00, 0x06, 0x00, 0x08, 0x00, 0x04, 0x00,
  0x06, 0x00, 0x00, 0x00, 0x00, 0x00, 0x80, 0x3f, 0x01, 0x00, 0x00, 0x00,
  0x16, 0x00, 0x00, 0x00, 0x01, 0x00, 0x00, 0x00, 0x15, 0x00, 0x00, 0x00,
  0x82, 0xfe, 0xff, 0xff, 0x14, 0x00, 0x00, 0x00, 0x00, 0x00, 0x00, 0x08,
  0x10, 0x00, 0x00, 0x00, 0x14, 0x00, 0x00, 0x00, 0x03, 0x00, 0x00, 0x00,
  0x3c, 0xf5, 0xff, 0xff, 0x01, 0x00, 0x00, 0x00, 0x15, 0x00, 0x00, 0x00,
  0x03, 0x00, 0x00, 0x00, 0x14, 0x00, 0x00, 0x00, 0x0b, 0x00, 0x00, 0x00,
  0x09, 0x00, 0x00, 0x00, 0x5a, 0xfe, 0xff, 0xff, 0x08, 0x00, 0x00, 0x00,
  0x0c, 0x00, 0x00, 0x00, 0x01, 0x00, 0x00, 0x00, 0x14, 0x00, 0x00, 0x00,
  0x02, 0x00, 0x00, 0x00, 0x13, 0x00, 0x00, 0x00, 0x0a, 0x00, 0x00, 0x00,
  0xd6, 0xfe, 0xff, 0xff, 0x14, 0x00, 0x00, 0x00, 0x00, 0x00, 0x00, 0x05,
  0x20, 0x00, 0x00, 0x00, 0x24, 0x00, 0x00, 0x00, 0x02, 0x00, 0x00, 0x00,
  0x42, 0xff, 0xff, 0xff, 0x02, 0x00, 0x00, 0x00, 0x01, 0x00, 0x00, 0x00,
  0x02, 0x00, 0x00, 0x00, 0x01, 0x00, 0x00, 0x00, 0x01, 0x00, 0x00, 0x00,
  0x13, 0x00, 0x00, 0x00, 0x01, 0x00, 0x00, 0x00, 0x12, 0x00, 0x00, 0x00,
  0xb6, 0xfe, 0xff, 0xff, 0x08, 0x00, 0x00, 0x00, 0x0c, 0x00, 0x00, 0x00,
  0x01, 0x00, 0x00, 0x00, 0x12, 0x00, 0x00, 0x00, 0x02, 0x00, 0x00, 0x00,
  0x11, 0x00, 0x00, 0x00, 0x06, 0x00, 0x00, 0x00, 0x32, 0xff, 0xff, 0xff,
  0x14, 0x00, 0x00, 0x00, 0x00, 0x00, 0x00, 0x01, 0x1c, 0x00, 0x00, 0x00,
  0x20, 0x00, 0x00, 0x00, 0x01, 0x00, 0x00, 0x00, 0x24, 0xff, 0xff, 0xff,
  0x00, 0x00, 0x00, 0x01, 0x01, 0x00, 0x00, 0x00, 0x01, 0x00, 0x00, 0x00,
  0x01, 0x00, 0x00, 0x00, 0x11, 0x00, 0x00, 0x00, 0x03, 0x00, 0x00, 0x00,
  0x10, 0x00, 0x00, 0x00, 0x08, 0x00, 0x00, 0x00, 0x02, 0x00, 0x00, 0x00,
  0x16, 0xff, 0xff, 0xff, 0x08, 0x00, 0x00, 0x00, 0x0c, 0x00, 0x00, 0x00,
  0x01, 0x00, 0x00, 0x00, 0x10, 0x00, 0x00, 0x00, 0x02, 0x00, 0x00, 0x00,
  0x0f, 0x00, 0x00, 0x00, 0x05, 0x00, 0x00, 0x00, 0x92, 0xff, 0xff, 0xff,
  0x24, 0x00, 0x00, 0x00, 0x00, 0x00, 0x00, 0x05, 0x30, 0x00, 0x00, 0x00,
  0x34, 0x00, 0x00, 0x00, 0x02, 0x00, 0x00, 0x00, 0x00, 0x00, 0x0e, 0x00,
  0x14, 0x00, 0x00, 0x00, 0x10, 0x00, 0x0c, 0x00, 0x08, 0x00, 0x04, 0x00,
  0x0e, 0x00, 0x00, 0x00, 0x02, 0x00, 0x00, 0x00, 0x01, 0x00, 0x00, 0x00,
  0x02, 0x00, 0x00, 0x00, 0x01, 0x00, 0x00, 0x00, 0x01, 0x00, 0x00, 0x00,
  0x0f, 0x00, 0x00, 0x00, 0x01, 0x00, 0x00, 0x00, 0x0e, 0x00, 0x00, 0x00,
  0x82, 0xff, 0xff, 0xff, 0x08, 0x00, 0x00, 0x00, 0x0c, 0x00, 0x00, 0x00,
  0x01, 0x00, 0x00, 0x00, 0x0e, 0x00, 0x00, 0x00, 0x02, 0x00, 0x00, 0x00,
  0x0d, 0x00, 0x00, 0x00, 0x04, 0x00, 0x00, 0x00, 0x00, 0x00, 0x0e, 0x00,
  0x18, 0x00, 0x14, 0x00, 0x10, 0x00, 0x0c, 0x00, 0x0b, 0x00, 0x04, 0x00,
  0x0e, 0x00, 0x00, 0x00, 0x20, 0x00, 0x00, 0x00, 0x00, 0x00, 0x00, 0x01,
  0x28, 0x00, 0x00, 0x00, 0x2c, 0x00, 0x00, 0x00, 0x01, 0x00, 0x00, 0x00,
  0x0c, 0x00, 0x10, 0x00, 0x00, 0x00, 0x0c, 0x00, 0x08, 0x00, 0x07, 0x00,
  0x0c, 0x00, 0x00, 0x00, 0x00, 0x00, 0x00, 0x01, 0x01, 0x00, 0x00, 0x00,
  0x01, 0x00, 0x00, 0x00, 0x01, 0x00, 0x00, 0x00, 0x0d, 0x00, 0x00, 0x00,
  0x03, 0x00, 0x00, 0x00, 0x0c, 0x00, 0x00, 0x00, 0x07, 0x00, 0x00, 0x00,
  0x01, 0x00, 0x00, 0x00, 0x00, 0x00, 0x0a, 0x00, 0x0c, 0x00, 0x00, 0x00,
  0x08, 0x00, 0x04, 0x00, 0x0a, 0x00, 0x00, 0x00, 0x08, 0x00, 0x00, 0x00,
  0x0c, 0x00, 0x00, 0x00, 0x01, 0x00, 0x00, 0x00, 0x0c, 0x00, 0x00, 0x00,
  0x02, 0x00, 0x00, 0x00, 0x00, 0x00, 0x00, 0x00, 0x03, 0x00, 0x00, 0x00,
  0x01, 0x00, 0x00, 0x00, 0x16, 0x00, 0x00, 0x00, 0x01, 0x00, 0x00, 0x00,
  0x00, 0x00, 0x00, 0x00, 0x17, 0x00, 0x00, 0x00, 0xac, 0x08, 0x00, 0x00,
  0x3c, 0x08, 0x00, 0x00, 0xe4, 0x07, 0x00, 0x00, 0x90, 0x07, 0x00, 0x00,
  0x24, 0x07, 0x00, 0x00, 0xcc, 0x06, 0x00, 0x00, 0x74, 0x06, 0x00, 0x00,
  0x20, 0x06, 0x00, 0x00, 0xcc, 0x05, 0x00, 0x00, 0x74, 0x05, 0x00, 0x00,
  0x28, 0x05, 0x00, 0x00, 0xdc, 0x04, 0x00, 0x00, 0x7c, 0x04, 0x00, 0x00,
  0xb0, 0x03, 0x00, 0x00, 0x50, 0x03, 0x00, 0x00, 0xf4, 0x02, 0x00, 0x00,
  0x94, 0x02, 0x00, 0x00, 0xbc, 0x01, 0x00, 0x00, 0x5c, 0x01, 0x00, 0x00,
  0x00, 0x01, 0x00, 0x00, 0xb4, 0x00, 0x00, 0x00, 0x50, 0x00, 0x00, 0x00,
  0x04, 0x00, 0x00, 0x00, 0xc6, 0xf7, 0xff, 0xff, 0x00, 0x00, 0x00, 0x01,
  0x10, 0x00, 0x00, 0x00, 0x10, 0x00, 0x00, 0x00, 0x17, 0x00, 0x00, 0x00,
  0x28, 0x00, 0x00, 0x00, 0xb0, 0xf7, 0xff, 0xff, 0x19, 0x00, 0x00, 0x00,
  0x53, 0x74, 0x61, 0x74, 0x65, 0x66, 0x75, 0x6c, 0x50, 0x61, 0x72, 0x74,
  0x69, 0x74, 0x69, 0x6f, 0x6e, 0x65, 0x64, 0x43, 0x61, 0x6c, 0x6c, 0x3a,
  0x30, 0x00, 0x00, 0x00, 0x02, 0x00, 0x00, 0x00, 0x01, 0x00, 0x00, 0x00,
  0x03, 0x00, 0x00, 0x00, 0x0e, 0xf8, 0xff, 0xff, 0x00, 0x00, 0x00, 0x01,
  0x10, 0x00, 0x00, 0x00, 0x10, 0x00, 0x00, 0x00, 0x16, 0x00, 0x00, 0x00,
  0x40, 0x00, 0x00, 0x00, 0xf8, 0xf7, 0xff, 0xff, 0x32, 0x00, 0x00, 0x00,
  0x73, 0x65, 0x71, 0x75, 0x65, 0x6e, 0x74, 0x69, 0x61, 0x6c, 0x2f, 0x79,
  0x5f, 0x70, 0x72, 0x65, 0x64, 0x2f, 0x4d, 0x61, 0x74, 0x4d, 0x75, 0x6c,
  0x3b, 0x73, 0x65, 0x71, 0x75, 0x65, 0x6e, 0x74, 0x69, 0x61, 0x6c, 0x2f,
  0x79, 0x5f, 0x70, 0x72, 0x65, 0x64, 0x2f, 0x42, 0x69, 0x61, 0x73, 0x41,
  0x64, 0x64, 0x00, 0x00, 0x02, 0x00, 0x00, 0x00, 0x01, 0x00, 0x00, 0x00,
  0x03, 0x00, 0x00, 0x00, 0x6e, 0xf8, 0xff, 0xff, 0x00, 0x00, 0x00, 0x01,
  0x10, 0x00, 0x00, 0x00, 0x10, 0x00, 0x00, 0x00, 0x15, 0x00, 0x00, 0x00,
  0x28, 0x00, 0x00, 0x00, 0x58, 0xf8, 0xff, 0xff, 0x1a, 0x00, 0x00, 0x00,
  0x73, 0x65, 0x71, 0x75, 0x65, 0x6e, 0x74, 0x69, 0x61, 0x6c, 0x2f, 0x66,
  0x6c, 0x61, 0x74, 0x74, 0x65, 0x6e, 0x2f, 0x52, 0x65, 0x73, 0x68, 0x61,
  0x70, 0x65, 0x00, 0x00, 0x02, 0x00, 0x00, 0x00, 0x01, 0x00, 0x00, 0x00,
  0xd0, 0x00, 0x00, 0x00, 0xb6, 0xf8, 0xff, 0xff, 0x00, 0x00, 0x00, 0x01,
  0x10, 0x00, 0x00, 0x00, 0x10, 0x00, 0x00, 0x00, 0x14, 0x00, 0x00, 0x00,
  0x30, 0x00, 0x00, 0x00, 0xa0, 0xf8, 0xff, 0xff, 0x22, 0x00, 0x00, 0x00,
  0x73, 0x65, 0x71, 0x75, 0x65, 0x6e, 0x74, 0x69, 0x61, 0x6c, 0x2f, 0x6d,
  0x61, 0x78, 0x5f, 0x70, 0x6f, 0x6f, 0x6c, 0x69, 0x6e, 0x67, 0x31, 0x64,
  0x5f, 0x31, 0x2f, 0x4d, 0x61, 0x78, 0x50, 0x6f, 0x6f, 0x6c, 0x00, 0x00,
  0x04, 0x00, 0x00, 0x00, 0x01, 0x00, 0x00, 0x00, 0x0d, 0x00, 0x00, 0x00,
  0x01, 0x00, 0x00, 0x00, 0x10, 0x00, 0x00, 0x00, 0x0e, 0xf9, 0xff, 0xff,
  0x00, 0x00, 0x00, 0x01, 0x10, 0x00, 0x00, 0x00, 0x10, 0x00, 0x00, 0x00,
  0x13, 0x00, 0x00, 0x00, 0x34, 0x00, 0x00, 0x00, 0xf8, 0xf8, 0xff, 0xff,
  0x26, 0x00, 0x00, 0x00, 0x73, 0x65, 0x71, 0x75, 0x65, 0x6e, 0x74, 0x69,
  0x61, 0x6c, 0x2f, 0x6d, 0x61, 0x78, 0x5f, 0x70, 0x6f, 0x6f, 0x6c, 0x69,
  0x6e, 0x67, 0x31, 0x64, 0x5f, 0x31, 0x2f, 0x45, 0x78, 0x70, 0x61, 0x6e,
  0x64, 0x44, 0x69, 0x6d, 0x73, 0x31, 0x00, 0x00, 0x04, 0x00, 0x00, 0x00,
  0x01, 0x00, 0x00, 0x00, 0x19, 0x00, 0x00, 0x00, 0x01, 0x00, 0x00, 0x00,
  0x10, 0x00, 0x00, 0x00, 0x6a, 0xf9, 0xff, 0xff, 0x00, 0x00, 0x00, 0x01,
  0x10, 0x00, 0x00, 0x00, 0x10, 0x00, 0x00, 0x00, 0x12, 0x00, 0x00, 0x00,
  0xac, 0x00, 0x00, 0x00, 0x54, 0xf9, 0xff, 0xff, 0x9d, 0x00, 0x00, 0x00,
  0x73, 0x65, 0x71, 0x75, 0x65, 0x6e, 0x74, 0x69, 0x61, 0x6c, 0x2f, 0x63,
  0x6f, 0x6e, 0x76, 0x31, 0x64, 0x5f, 0x31, 0x2f, 0x52, 0x65, 0x6c, 0x75,
  0x3b, 0x73, 0x65, 0x71, 0x75, 0x65, 0x6e, 0x74, 0x69, 0x61, 0x6c, 0x2f,
  0x63, 0x6f, 0x6e, 0x76, 0x31, 0x64, 0x5f, 0x31, 0x2f, 0x42, 0x69, 0x61,
  0x73, 0x41, 0x64, 0x64, 0x3b, 0x73, 0x65, 0x71, 0x75, 0x65, 0x6e, 0x74,
  0x69, 0x61, 0x6c, 0x2f, 0x63, 0x6f, 0x6e, 0x76, 0x31, 0x64, 0x5f, 0x31,
  0x2f, 0x43, 0x6f, 0x6e, 0x76, 0x31, 0x44, 0x2f, 0x53, 0x71, 0x75, 0x65,
  0x65, 0x7a, 0x65, 0x3b, 0x73, 0x65, 0x71, 0x75, 0x65, 0x6e, 0x74, 0x69,
  0x61, 0x6c, 0x2f, 0x63, 0x6f, 0x6e, 0x76, 0x31, 0x64, 0x5f, 0x31, 0x2f,
  0x42, 0x69, 0x61, 0x73, 0x41, 0x64, 0x64, 0x2f, 0x52, 0x65, 0x61, 0x64,
  0x56, 0x61, 0x72, 0x69, 0x61, 0x62, 0x6c, 0x65, 0x4f, 0x70, 0x3b, 0x73,
  0x65, 0x71, 0x75, 0x65, 0x6e, 0x74, 0x69, 0x61, 0x6c, 0x2f, 0x63, 0x6f,
  0x6e, 0x76, 0x31, 0x64, 0x5f, 0x31, 0x2f, 0x43, 0x6f, 0x6e, 0x76, 0x31,
  0x44, 0x00, 0x00, 0x00, 0x04, 0x00, 0x00, 0x00, 0x01, 0x00, 0x00, 0x00,
  0x01, 0x00, 0x00, 0x00, 0x19, 0x00, 0x00, 0x00, 0x10, 0x00, 0x00, 0x00,
  0x3e, 0xfa, 0xff, 0xff, 0x00, 0x00, 0x00, 0x01, 0x10, 0x00, 0x00, 0x00,
  0x10, 0x00, 0x00, 0x00, 0x11, 0x00, 0x00, 0x00, 0x34, 0x00, 0x00, 0x00,
  0x28, 0xfa, 0xff, 0xff, 0x26, 0x00, 0x00, 0x00, 0x73, 0x65, 0x71, 0x75,
  0x65, 0x6e, 0x74, 0x69, 0x61, 0x6c, 0x2f, 0x63, 0x6f, 0x6e, 0x76, 0x31,
  0x64, 0x5f, 0x31, 0x2f, 0x43, 0x6f, 0x6e, 0x76, 0x31, 0x44, 0x2f, 0x45,
  0x78, 0x70, 0x61, 0x6e, 0x64, 0x44, 0x69, 0x6d, 0x73, 0x31, 0x00, 0x00,
  0x04, 0x00, 0x00, 0x00, 0x01, 0x00, 0x00, 0x00, 0x01, 0x00, 0x00, 0x00,
  0x19, 0x00, 0x00, 0x00, 0x08, 0x00, 0x00, 0x00, 0x9a, 0xfa, 0xff, 0xff,
  0x00, 0x00, 0x00, 0x01, 0x10, 0x00, 0x00, 0x00, 0x10, 0x00, 0x00, 0x00,
  0x10, 0x00, 0x00, 0x00, 0x30, 0x00, 0x00, 0x00, 0x84, 0xfa, 0xff, 0xff,
  0x20, 0x00, 0x00, 0x00, 0x73, 0x65, 0x71, 0x75, 0x65, 0x6e, 0x74, 0x69,
  0x61, 0x6c, 0x2f, 0x6d, 0x61, 0x78, 0x5f, 0x70, 0x6f, 0x6f, 0x6c, 0x69,
  0x6e, 0x67, 0x31, 0x64, 0x2f, 0x4d, 0x61, 0x78, 0x50, 0x6f, 0x6f, 0x6c,
  0x00, 0x00, 0x00, 0x00, 0x04, 0x00, 0x00, 0x00, 0x01, 0x00, 0x00, 0x00,
  0x19, 0x00, 0x00, 0x00, 0x01, 0x00, 0x00, 0x00, 0x08, 0x00, 0x00, 0x00,
  0xf2, 0xfa, 0xff, 0xff, 0x00, 0x00, 0x00, 0x01, 0x10, 0x00, 0x00, 0x00,
  0x10, 0x00, 0x00, 0x00, 0x0f, 0x00, 0x00, 0x00, 0x34, 0x00, 0x00, 0x00,
  0xdc, 0xfa, 0xff, 0xff, 0x24, 0x00, 0x00, 0x00, 0x73, 0x65, 0x71, 0x75,
  0x65, 0x6e, 0x74, 0x69, 0x61, 0x6c, 0x2f, 0x6d, 0x61, 0x78, 0x5f, 0x70,
  0x6f, 0x6f, 0x6c, 0x69, 0x6e, 0x67, 0x31, 0x64, 0x2f, 0x45, 0x78, 0x70,
  0x61, 0x6e, 0x64, 0x44, 0x69, 0x6d, 0x73, 0x31, 0x00, 0x00, 0x00, 0x00,
  0x04, 0x00, 0x00, 0x00, 0x01, 0x00, 0x00, 0x00, 0x32, 0x00, 0x00, 0x00,
  0x01, 0x00, 0x00, 0x00, 0x08, 0x00, 0x00, 0x00, 0x4e, 0xfb, 0xff, 0xff,
  0x00, 0x00, 0x00, 0x01, 0x10, 0x00, 0x00, 0x00, 0x10, 0x00, 0x00, 0x00,
  0x0e, 0x00, 0x00, 0x00, 0xa0, 0x00, 0x00, 0x00, 0x38, 0xfb, 0xff, 0xff,
  0x93, 0x00, 0x00, 0x00, 0x73, 0x65, 0x71, 0x75, 0x65, 0x6e, 0x74, 0x69,
  0x61, 0x6c, 0x2f, 0x63, 0x6f, 0x6e, 0x76, 0x31, 0x64, 0x2f, 0x52, 0x65,
  0x6c, 0x75, 0x3b, 0x73, 0x65, 0x71, 0x75, 0x65, 0x6e, 0x74, 0x69, 0x61,
  0x6c, 0x2f, 0x63, 0x6f, 0x6e, 0x76, 0x31, 0x64, 0x2f, 0x42, 0x69, 0x61,
  0x73, 0x41, 0x64, 0x64, 0x3b, 0x73, 0x65, 0x71, 0x75, 0x65, 0x6e, 0x74,
  0x69, 0x61, 0x6c, 0x2f, 0x63, 0x6f, 0x6e, 0x76, 0x31, 0x64, 0x2f, 0x43,
  0x6f, 0x6e, 0x76, 0x31, 0x44, 0x2f, 0x53, 0x71, 0x75, 0x65, 0x65, 0x7a,
  0x65, 0x3b, 0x73, 0x65, 0x71, 0x75, 0x65, 0x6e, 0x74, 0x69, 0x61, 0x6c,
  0x2f, 0x63, 0x6f, 0x6e, 0x76, 0x31, 0x64, 0x2f, 0x42, 0x69, 0x61, 0x73,
  0x41, 0x64, 0x64, 0x2f, 0x52, 0x65, 0x61, 0x64, 0x56, 0x61, 0x72, 0x69,
  0x61, 0x62, 0x6c, 0x65, 0x4f, 0x70, 0x3b, 0x73, 0x65, 0x71, 0x75, 0x65,
  0x6e, 0x74, 0x69, 0x61, 0x6c, 0x2f, 0x63, 0x6f, 0x6e, 0x76, 0x31, 0x64,
  0x2f, 0x43, 0x6f, 0x6e, 0x76, 0x31, 0x44, 0x00, 0x04, 0x00, 0x00, 0x00,
  0x01, 0x00, 0x00, 0x00, 0x01, 0x00, 0x00, 0x00, 0x32, 0x00, 0x00, 0x00,
  0x08, 0x00, 0x00, 0x00, 0x16, 0xfc, 0xff, 0xff, 0x00, 0x00, 0x00, 0x01,
  0x10, 0x00, 0x00, 0x00, 0x10, 0x00, 0x00, 0x00, 0x0d, 0x00, 0x00, 0x00,
  0x34, 0x00, 0x00, 0x00, 0x00, 0xfc, 0xff, 0xff, 0x24, 0x00, 0x00, 0x00,
  0x73, 0x65, 0x71, 0x75, 0x65, 0x6e, 0x74, 0x69, 0x61, 0x6c, 0x2f, 0x63,
  0x6f, 0x6e, 0x76, 0x31, 0x64, 0x2f, 0x43, 0x6f, 0x6e, 0x76, 0x31, 0x44,
  0x2f, 0x45, 0x78, 0x70, 0x61, 0x6e, 0x64, 0x44, 0x69, 0x6d, 0x73, 0x31,
  0x00, 0x00, 0x00, 0x00, 0x04, 0x00, 0x00, 0x00, 0x01, 0x00, 0x00, 0x00,
  0x01, 0x00, 0x00, 0x00, 0x32, 0x00, 0x00, 0x00, 0x0d, 0x00, 0x00, 0x00,
  0x72, 0xfc, 0xff, 0xff, 0x00, 0x00, 0x00, 0x01, 0x10, 0x00, 0x00, 0x00,
  0x10, 0x00, 0x00, 0x00, 0x0c, 0x00, 0x00, 0x00, 0x28, 0x00, 0x00, 0x00,
  0x5c, 0xfc, 0xff, 0xff, 0x18, 0x00, 0x00, 0x00, 0x73, 0x65, 0x71, 0x75,
  0x65, 0x6e, 0x74, 0x69, 0x61, 0x6c, 0x2f, 0x79, 0x5f, 0x70, 0x72, 0x65,
  0x64, 0x2f, 0x4d, 0x61, 0x74, 0x4d, 0x75, 0x6c, 0x00, 0x00, 0x00, 0x00,
  0x02, 0x00, 0x00, 0x00, 0x03, 0x00, 0x00, 0x00, 0xd0, 0x00, 0x00, 0x00,
  0xca, 0xfd, 0xff, 0xff, 0x00, 0x00, 0x00, 0x01, 0x14, 0x00, 0x00, 0x00,
  0x14, 0x00, 0x00, 0x00, 0x0b, 0x00, 0x00, 0x00, 0x00, 0x00, 0x00, 0x02,
  0x28, 0x00, 0x00, 0x00, 0xa8, 0xfc, 0xff, 0xff, 0x18, 0x00, 0x00, 0x00,
  0x73, 0x65, 0x71, 0x75, 0x65, 0x6e, 0x74, 0x69, 0x61, 0x6c, 0x2f, 0x66,
  0x6c, 0x61, 0x74, 0x74, 0x65, 0x6e, 0x2f, 0x43, 0x6f, 0x6e, 0x73, 0x74,
  0x00, 0x00, 0x00, 0x00, 0x01, 0x00, 0x00, 0x00, 0x02, 0x00, 0x00, 0x00,
  0x02, 0xfd, 0xff, 0xff, 0x00, 0x00, 0x00, 0x01, 0x10, 0x00, 0x00, 0x00,
  0x10, 0x00, 0x00, 0x00, 0x0a, 0x00, 0x00, 0x00, 0x38, 0x00, 0x00, 0x00,
  0xec, 0xfc, 0xff, 0xff, 0x28, 0x00, 0x00, 0x00, 0x73, 0x65, 0x71, 0x75,
  0x65, 0x6e, 0x74, 0x69, 0x61, 0x6c, 0x2f, 0x79, 0x5f, 0x70, 0x72, 0x65,
  0x64, 0x2f, 0x42, 0x69, 0x61, 0x73, 0x41, 0x64, 0x64, 0x2f, 0x52, 0x65,
  0x61, 0x64, 0x56, 0x61, 0x72, 0x69, 0x61, 0x62, 0x6c, 0x65, 0x4f, 0x70,
  0x00, 0x00, 0x00, 0x00, 0x01, 0x00, 0x00, 0x00, 0x03, 0x00, 0x00, 0x00,
  0x56, 0xfd, 0xff, 0xff, 0x00, 0x00, 0x00, 0x01, 0x10, 0x00, 0x00, 0x00,
  0x10, 0x00, 0x00, 0x00, 0x09, 0x00, 0x00, 0x00, 0x28, 0x00, 0x00, 0x00,
  0x40, 0xfd, 0xff, 0xff, 0x1a, 0x00, 0x00, 0x00, 0x73, 0x65, 0x71, 0x75,
  0x65, 0x6e, 0x74, 0x69, 0x61, 0x6c, 0x2f, 0x63, 0x6f, 0x6e, 0x76, 0x31,
  0x64, 0x5f, 0x31, 0x2f, 0x43, 0x6f, 0x6e, 0x76, 0x31, 0x44, 0x00, 0x00,
  0x04, 0x00, 0x00, 0x00, 0x10, 0x00, 0x00, 0x00, 0x01, 0x00, 0x00, 0x00,
  0x03, 0x00, 0x00, 0x00, 0x08, 0x00, 0x00, 0x00, 0xa6, 0xfd, 0xff, 0xff,
  0x00, 0x00, 0x00, 0x01, 0x10, 0x00, 0x00, 0x00, 0x10, 0x00, 0x00, 0x00,
  0x08, 0x00, 0x00, 0x00, 0x28, 0x00, 0x00, 0x00, 0x90, 0xfd, 0xff, 0xff,
  0x18, 0x00, 0x00, 0x00, 0x73, 0x65, 0x71, 0x75, 0x65, 0x6e, 0x74, 0x69,
  0x61, 0x6c, 0x2f, 0x63, 0x6f, 0x6e, 0x76, 0x31, 0x64, 0x2f, 0x43, 0x6f,
  0x6e, 0x76, 0x31, 0x44, 0x00, 0x00, 0x00, 0x00, 0x04, 0x00, 0x00, 0x00,
  0x08, 0x00, 0x00, 0x00, 0x01, 0x00, 0x00, 0x00, 0x03, 0x00, 0x00, 0x00,
  0x0d, 0x00, 0x00, 0x00, 0x06, 0xff, 0xff, 0xff, 0x00, 0x00, 0x00, 0x01,
  0x14, 0x00, 0x00, 0x00, 0x14, 0x00, 0x00, 0x00, 0x07, 0x00, 0x00, 0x00,
  0x00, 0x00, 0x00, 0x02, 0x34, 0x00, 0x00, 0x00, 0xe4, 0xfd, 0xff, 0xff,
  0x25, 0x00, 0x00, 0x00, 0x73, 0x65, 0x71, 0x75, 0x65, 0x6e, 0x74, 0x69,
  0x61, 0x6c, 0x2f, 0x6d, 0x61, 0x78, 0x5f, 0x70, 0x6f, 0x6f, 0x6c, 0x69,
  0x6e, 0x67, 0x31, 0x64, 0x5f, 0x31, 0x2f, 0x45, 0x78, 0x70, 0x61, 0x6e,
  0x64, 0x44, 0x69, 0x6d, 0x73, 0x00, 0x00, 0x00, 0x01, 0x00, 0x00, 0x00,
  0x04, 0x00, 0x00, 0x00, 0x5a, 0xff, 0xff, 0xff, 0x00, 0x00, 0x00, 0x01,
  0x14, 0x00, 0x00, 0x00, 0x14, 0x00, 0x00, 0x00, 0x06, 0x00, 0x00, 0x00,
  0x00, 0x00, 0x00, 0x02, 0x34, 0x00, 0x00, 0x00, 0x38, 0xfe, 0xff, 0xff,
  0x25, 0x00, 0x00, 0x00, 0x73, 0x65, 0x71, 0x75, 0x65, 0x6e, 0x74, 0x69,
  0x61, 0x6c, 0x2f, 0x63, 0x6f, 0x6e, 0x76, 0x31, 0x64, 0x5f, 0x31, 0x2f,
  0x43, 0x6f, 0x6e, 0x76, 0x31, 0x44, 0x2f, 0x45, 0x78, 0x70, 0x61, 0x6e,
  0x64, 0x44, 0x69, 0x6d, 0x73, 0x00, 0x00, 0x00, 0x01, 0x00, 0x00, 0x00,
  0x04, 0x00, 0x00, 0x00, 0xae, 0xff, 0xff, 0xff, 0x00, 0x00, 0x00, 0x01,
  0x14, 0x00, 0x00, 0x00, 0x14, 0x00, 0x00, 0x00, 0x05, 0x00, 0x00, 0x00,
  0x00, 0x00, 0x00, 0x02, 0x30, 0x00, 0x00, 0x00, 0x8c, 0xfe, 0xff, 0xff,
  0x23, 0x00, 0x00, 0x00, 0x73, 0x65, 0x71, 0x75, 0x65, 0x6e, 0x74, 0x69,
  0x61, 0x6c, 0x2f, 0x6d, 0x61, 0x78, 0x5f, 0x70, 0x6f, 0x6f, 0x6c, 0x69,
  0x6e, 0x67, 0x31, 0x64, 0x2f, 0x45, 0x78, 0x70, 0x61, 0x6e, 0x64, 0x44,
  0x69, 0x6d, 0x73, 0x00, 0x01, 0x00, 0x00, 0x00, 0x04, 0x00, 0x00, 0x00,
  0x00, 0x00, 0x16, 0x00, 0x1c, 0x00, 0x18, 0x00, 0x17, 0x00, 0x10, 0x00,
  0x0c, 0x00, 0x08, 0x00, 0x00, 0x00, 0x00, 0x00, 0x00, 0x00, 0x07, 0x00,
  0x16, 0x00, 0x00, 0x00, 0x00, 0x00, 0x00, 0x01, 0x14, 0x00, 0x00, 0x00,
  0x14, 0x00, 0x00, 0x00, 0x04, 0x00, 0x00, 0x00, 0x00, 0x00, 0x00, 0x02,
  0x30, 0x00, 0x00, 0x00, 0xf4, 0xfe, 0xff, 0xff, 0x23, 0x00, 0x00, 0x00,
  0x73, 0x65, 0x71, 0x75, 0x65, 0x6e, 0x74, 0x69, 0x61, 0x6c, 0x2f, 0x63,
  0x6f, 0x6e, 0x76, 0x31, 0x64, 0x2f, 0x43, 0x6f, 0x6e, 0x76, 0x31, 0x44,
  0x2f, 0x45, 0x78, 0x70, 0x61, 0x6e, 0x64, 0x44, 0x69, 0x6d, 0x73, 0x00,
  0x01, 0x00, 0x00, 0x00, 0x04, 0x00, 0x00, 0x00, 0x56, 0xff, 0xff, 0xff,
  0x00, 0x00, 0x00, 0x01, 0x10, 0x00, 0x00, 0x00, 0x10, 0x00, 0x00, 0x00,
  0x03, 0x00, 0x00, 0x00, 0x38, 0x00, 0x00, 0x00, 0x40, 0xff, 0xff, 0xff,
  0x2a, 0x00, 0x00, 0x00, 0x73, 0x65, 0x71, 0x75, 0x65, 0x6e, 0x74, 0x69,
  0x61, 0x6c, 0x2f, 0x63, 0x6f, 0x6e, 0x76, 0x31, 0x64, 0x5f, 0x31, 0x2f,
  0x42, 0x69, 0x61, 0x73, 0x41, 0x64, 0x64, 0x2f, 0x52, 0x65, 0x61, 0x64,
  0x56, 0x61, 0x72, 0x69, 0x61, 0x62, 0x6c, 0x65, 0x4f, 0x70, 0x00, 0x00,
  0x01, 0x00, 0x00, 0x00, 0x10, 0x00, 0x00, 0x00, 0xaa, 0xff, 0xff, 0xff,
  0x00, 0x00, 0x00, 0x01, 0x10, 0x00, 0x00, 0x00, 0x10, 0x00, 0x00, 0x00,
  0x02, 0x00, 0x00, 0x00, 0x38, 0x00, 0x00, 0x00, 0x94, 0xff, 0xff, 0xff,
  0x28, 0x00, 0x00, 0x00, 0x73, 0x65, 0x71, 0x75, 0x65, 0x6e, 0x74, 0x69,
  0x61, 0x6c, 0x2f, 0x63, 0x6f, 0x6e, 0x76, 0x31, 0x64, 0x2f, 0x42, 0x69,
  0x61, 0x73, 0x41, 0x64, 0x64, 0x2f, 0x52, 0x65, 0x61, 0x64, 0x56, 0x61,
  0x72, 0x69, 0x61, 0x62, 0x6c, 0x65, 0x4f, 0x70, 0x00, 0x00, 0x00, 0x00,
  0x01, 0x00, 0x00, 0x00, 0x08, 0x00, 0x00, 0x00, 0x00, 0x00, 0x16, 0x00,
  0x18, 0x00, 0x14, 0x00, 0x00, 0x00, 0x10, 0x00, 0x0c, 0x00, 0x08, 0x00,
  0x00, 0x00, 0x00, 0x00, 0x00, 0x00, 0x07, 0x00, 0x16, 0x00, 0x00, 0x00,
  0x00, 0x00, 0x00, 0x01, 0x14, 0x00, 0x00, 0x00, 0x14, 0x00, 0x00, 0x00,
  0x01, 0x00, 0x00, 0x00, 0x24, 0x00, 0x00, 0x00, 0x04, 0x00, 0x04, 0x00,
  0x04, 0x00, 0x00, 0x00, 0x13, 0x00, 0x00, 0x00, 0x73, 0x65, 0x72, 0x76,
  0x69, 0x6e, 0x67, 0x5f, 0x64, 0x65, 0x66, 0x61, 0x75, 0x6c, 0x74, 0x5f,
  0x78, 0x3a, 0x30, 0x00, 0x02, 0x00, 0x00, 0x00, 0x01, 0x00, 0x00, 0x00,
  0x8a, 0x02, 0x00, 0x00, 0x05, 0x00, 0x00, 0x00, 0x50, 0x00, 0x00, 0x00,
  0x34, 0x00, 0x00, 0x00, 0x24, 0x00, 0x00, 0x00, 0x14, 0x00, 0x00, 0x00,
  0x04, 0x00, 0x00, 0x00, 0xd0, 0xff, 0xff, 0xff, 0x19, 0x00, 0x00, 0x00,
  0x00, 0x00, 0x00, 0x19, 0xdc, 0xff, 0xff, 0xff, 0x09, 0x00, 0x00, 0x00,
  0x00, 0x00, 0x00, 0x09, 0xe8, 0xff, 0xff, 0xff, 0x11, 0x00, 0x00, 0x00,
  0x00, 0x00, 0x00, 0x11, 0xf4, 0xff, 0xff, 0xff, 0x03, 0x00, 0x00, 0x00,
  0x00, 0x00, 0x00, 0x03, 0x0c, 0x00, 0x0c, 0x00, 0x0b, 0x00, 0x00, 0x00,
  0x00, 0x00, 0x04, 0x00, 0x0c, 0x00, 0x00, 0x00, 0x16, 0x00, 0x00, 0x00,
  0x00, 0x00, 0x00, 0x16
};
unsigned int tflite_learn_4_len = 9256;
#endif // _EI_CLASSIFIER_TFLITE_LEARN_4_H_
